[PAD]
[UNK]
[START]
[END]
!
"
#
$
%
&
'
(
)
*
+
,
-
.
/
0
1
2
3
4
5
6
7
8
9
:
;
<
=
>
?
@
[
\
]
^
_
`
a
b
c
d
e
f
g
h
i
j
k
l
m
n
o
p
q
r
s
t
u
v
w
x
y
z
{
|
}
~
¡
¢
£
¤
¥
¦
§
©
«
¬
®
°
±
¶
·
»
¿
×
æ
ð
÷
ø
þ
đ
ħ
ı
ł
œ
ƙ
ǀ
ǃ
ə
ʀ
ʊ
ʻ
ʼ
ʽ
ʿ
ˆ
ˈ
α
β
ε
ζ
η
ι
κ
λ
μ
ν
ο
π
ρ
σ
τ
φ
ω
ϟ
а
б
в
д
е
з
и
к
л
м
н
о
п
р
с
т
у
ы
ь
ю
я
і
ћ
ԯ
ן
ا
ب
ة
ت
ج
ح
ر
س
ش
ع
ف
ك
ل
م
و
ي
ง
ต
บ
ป
พ
ย
ร
ะ
ᄀ
ᄂ
ᄉ
ᄋ
ᄐ
ᅡ
ᅳ
ᅵ
ᆯ
ᆷ
ᆼ
‐
‒
–
—
―
‘
’
‚
“
”
„
‟
†
‡
•
 
 
‰
′
‹
⁄
₩
€
→
∑
−
∙
∼
─
█
■
▬
▲
▼
●
★
☆
☺
♡
♥
❤
き
こ
さ
た
っ
て
ろ
ん
コ
ネ
ル
ロ
ー
世
个
中
你
分
呀
四
回
声
外
女
家
寝
帰
年
心
新
方
明
春
曆
有
朝
来
没
游
界
等
節
紅
綠
縄
縯
自
藍
農
过
钱
门
音



￼
�
💀
😳
🙏
the
to
and
of
in
was
that
for
on
is
he
it
with
said
his
at
as
by
have
from
be
has
her
but
are
she
they
an
this
who
had
not
we
after
their
were
been
will
one
when
you
which
year
up
##s
out
about
more
or
there
would
people
also
all
two
can
new
him
time
so
into
last
just
what
than
told
if
over
first
no
police
my
years
them
its
mr
could
before
now
other
some
old
like
being
down
home
while
because
back
world
where
do
left
three
only
our
000
family
day
during
off
get
then
made
cnn
how
me
most
found
right
against
very
many
may
says
life
around
even
any
court
make
children
through
man
since
according
those
way
did
well
take
week
city
still
government
going
say
work
state
video
see
house
president
don
four
your
go
these
re
us
former
another
team
think
such
est
know
country
much
should
under
united
between
including
school
long
used
high
called
part
per
women
mother
night
2013
today
show
want
##ing
death
both
help
good
pictured
next
10
five
##a
took
later
never
added
days
group
second
public
##e
london
own
month
got
away
seen
come
same
months
case
set
ve
put
place
hospital
news
million
came
taken
went
2012
report
really
here
cent
young
too
top
best
men
times
car
obama
every
##ed
national
south
end
six
woman
didn
wife
published
father
need
health
use
number
20
however
game
died
head
killed
having
look
money
york
states
little
##d
without
until
##y
each
asked
british
son
following
face
company
security
north
side
england
great
reported
season
league
body
known
child
support
12
american
something
saying
party
officials
hours
international
big
thought
white
west
few
club
ago
##o
half
sunday
##i
updated
uk
##er
law
statement
across
monday
again
won
friends
attack
given
area
daughter
find
tuesday
11
able
working
office
always
15
university
war
several
already
friday
lot
far
##n
30
near
water
couple
despite
taking
military
why
making
local
members
parents
past
earlier
whether
david
outside
service
believe
play
early
wednesday
once
##ly
real
miss
minister
hit
using
cup
behind
authorities
ms
started
weeks
john
run
things
care
give
become
scroll
love
shot
officers
saturday
win
heard
wanted
thursday
ever
among
looking
al
##t
might
lost
better
star
husband
spokesman
fire
close
mrs
media
least
##r
move
released
air
different
does
full
saw
department
person
players
morning
18
trying
keep
live
together
open
point
start
final
black
food
am
based
system
free
information
britain
change
front
others
investigation
street
park
january
shows
girl
arrested
2011
wrote
though
held
feel
yet
must
name
minutes
began
pay
campaign
claims
staff
call
decision
himself
less
business
16
getting
friend
judge
along
almost
enough
incident
hard
job
claimed
revealed
evidence
seven
yesterday
done
dead
doing
became
small
chief
third
march
official
facebook
14
political
daily
power
social
room
football
recent
13
september
clear
dr
watch
phone
stop
manchester
site
age
expected
november
deal
prison
eight
december
led
inside
medical
sent
sex
17
likely
thing
25
october
lives
officer
director
post
happened
rights
often
line
fans
control
although
due
murder
match
human
community
baby
further
within
games
june
late
comes
mail
county
michael
accused
future
online
road
scene
centre
trial
east
living
action
august
boy
tried
50
ll
important
someone
hope
spent
red
general
2010
involved
described
manager
charges
let
##l
leave
july
history
major
received
april
china
return
hand
town
believed
large
played
heart
force
doesn
tv
record
story
gave
19
film
possible
100
nothing
leader
met
building
reports
24
turned
order
fact
center
try
anything
james
goal
america
charged
prime
washington
coming
twitter
council
training
forward
lead
player
series
2014
ahead
legal
nearly
wasn
ground
summer
research
federal
##on
february
royal
risk
mark
website
drug
worked
event
sure
playing
forces
miles
course
appeared
students
cancer
secretary
##m
press
##es
fight
flight
continue
40
everything
happy
role
admitted
hotel
victims
study
victim
treatment
countries
whose
showed
california
21
recently
instead
born
issue
brother
agency
everyone
thousands
read
problem
safety
picture
bill
australia
moment
justice
announced
european
anyone
soon
cost
private
knew
forced
book
plans
22
felt
girls
space
looked
services
families
currently
special
foreign
2009
caused
serious
problems
level
above
running
means
crime
nine
attorney
light
member
guilty
act
violence
brought
visit
cut
liverpool
decided
tell
stay
paid
result
chelsea
kind
chance
com
career
huge
rather
difficult
bad
strong
student
plan
latest
blood
french
paul
van
experience
interview
allegedly
moved
doctors
workers
hour
##h
cases
23
makes
posted
dog
brown
process
st
missing
relationship
property
nation
race
george
search
named
hands
bit
failed
premier
remains
cause
hearing
suffered
middle
needed
term
co
short
themselves
france
christmas
election
condition
alleged
include
board
sexual
actually
popular
2008
similar
attacks
senior
syria
king
gone
bring
station
pair
tax
patients
##k
meeting
airport
europe
leaving
claim
weekend
discovered
army
allowed
turn
low
married
labour
wrong
bank
shooting
##man
central
cameron
idea
message
plane
ball
form
list
comments
arrived
situation
church
capital
speaking
market
helped
killing
current
iraq
charge
policy
couldn
looks
driving
island
test
26
de
personal
gun
round
africa
russia
break
quite
prince
leading
areas
talk
whole
sister
abuse
release
images
wearing
groups
travel
stand
needs
key
single
27
image
available
confirmed
wants
driver
points
28
issues
music
##g
pressure
smith
russian
cannot
page
price
longer
leaders
injuries
matter
americans
photo
executive
returned
internet
defense
disease
kept
provide
500
anti
criminal
rest
operation
view
bbc
caught
florida
drugs
victory
college
pictures
green
program
data
worth
##an
winning
hold
previous
range
source
residents
hundreds
union
minute
feet
door
injured
continued
martin
position
created
emergency
stage
technology
comment
fighting
sold
reporter
takes
english
committee
district
region
biggest
carried
average
question
sea
model
meet
included
vote
energy
kids
crash
class
percent
trip
giving
sign
project
weight
finally
total
conference
quickly
built
queen
letter
coast
warned
camera
store
marriage
previously
injury
remain
loss
administration
financial
hair
response
immediately
owner
users
29
jail
homes
potential
arrest
arsenal
contributed
calls
battle
ten
launched
beach
access
land
experts
tour
self
account
apple
fell
sentence
germany
female
details
questions
weather
safe
probably
economic
interest
##u
surgery
billion
border
goals
style
either
attention
vehicle
photos
isn
2007
##in
growing
firm
assault
offer
lived
chinese
main
australian
passengers
companies
step
coach
walk
texas
grand
damage
words
education
chris
period
especially
works
allow
champions
conditions
eye
industry
republican
create
share
events
##c
reason
raised
customers
afghanistan
##p
accident
train
spoke
refused
simply
followed
shown
denied
towards
global
joined
civil
seems
field
believes
trust
convicted
impact
goes
challenge
happen
results
eventually
success
brain
buy
understand
else
scotland
fall
floor
ready
herself
los
sir
cars
opening
ended
captain
figures
television
northern
san
size
african
passed
iran
contact
williams
blue
##ers
google
spending
famous
60
allegations
troops
alone
title
200
sports
animal
changed
oil
holiday
parts
earth
offered
gold
investigators
professor
moving
evening
johnson
network
partner
schools
wedding
doctor
protect
performance
weapons
increase
ask
adding
birth
jobs
loved
31
appears
appear
boys
soldiers
reach
korea
angeles
opened
stopped
common
aged
showing
##en
cross
agreed
jones
crown
complete
secret
threat
dangerous
society
clinton
sometimes
speech
true
german
fashion
economy
drive
considered
art
peter
efforts
treated
concerns
designed
afternoon
opportunity
amount
pain
jackson
calling
nearby
eyes
largest
beat
save
lawyer
signed
mean
costs
meanwhile
nations
jury
india
kill
fellow
crisis
wouldn
changes
animals
talking
wall
scored
attempt
william
unable
broke
cover
throughout
congress
particularly
richard
armed
sense
ran
mexico
emerged
ice
prosecutors
foot
ordered
mobile
scientists
example
issued
completely
western
higher
bought
charity
effort
chairman
mind
boss
poor
isis
identified
sun
river
madrid
supporters
seeing
century
gas
terms
fear
israel
speak
reportedly
researchers
date
carry
association
bed
ex
pretty
figure
spain
suspect
faces
follow
wales
cash
movie
35
telling
brazil
rules
striker
2006
aircraft
track
girlfriend
newspaper
significant
millions
development
skin
build
rate
suffering
levels
rise
spend
served
mission
footage
robert
managed
written
radio
twice
placed
walking
streets
appeal
waiting
ensure
fine
nuclear
##ton
onto
reporters
related
storm
islamic
feeling
stars
holding
##z
majority
dress
thomas
responsible
fourth
##0
non
rescue
##2
natural
base
southern
hear
crew
intelligence
senate
heavy
certain
sport
nhs
carrying
target
square
records
numbers
competition
itself
remember
lee
magazine
45
gets
camp
italy
penalty
clearly
squad
spot
jailed
certainly
standing
concerned
##le
asking
opposition
stadium
easy
double
documents
fast
defence
normal
crowd
removed
syrian
village
##al
address
dogs
presidential
sale
lose
cold
closed
pulled
speed
focus
peace
reached
aid
winner
planning
expect
host
avoid
myself
deep
perhaps
raise
paris
harry
box
effect
population
ban
watching
helping
word
planned
mailonline
worst
older
deaths
gay
original
sentenced
products
benefits
extra
bodies
decades
bus
successful
ship
hall
messages
hopes
suggested
suicide
launch
computer
entire
actions
struck
fired
pakistan
##us
##1
mayor
perfect
snow
attacked
alcohol
collection
democratic
meant
join
whom
send
palace
alongside
rare
broken
fit
lord
highest
32
includes
beautiful
starting
sorry
hot
lower
dropped
##5
teams
bar
bid
compared
warning
lack
male
shop
immigration
kim
illegal
becoming
apartment
massive
teacher
restaurant
prevent
##b
sales
choice
putting
appearance
straight
god
laws
barack
positive
design
check
##ie
wait
japan
places
##3
winter
review
aware
piece
ways
thinking
seemed
covered
lady
2005
extremely
pass
bridge
flying
##is
shared
andrew
reasons
sell
apparently
present
talks
debate
usually
republicans
professional
protesters
facing
leg
steve
fun
bush
insisted
modern
associated
shortly
beyond
below
muslim
tough
rock
maybe
continues
champion
die
claiming
sydney
organization
type
captured
independent
quality
actor
losing
£1
tom
traffic
provided
strike
patient
super
deputy
committed
conservative
guy
##4
eat
explained
healthy
drink
paper
degree
culture
eating
rape
contract
affected
expressed
barcelona
guard
##f
##ley
arms
operations
filed
features
commission
la
handed
fbi
signs
initially
dark
violent
33
movement
italian
proud
row
yes
custody
giant
mental
fan
device
table
teenager
wide
greater
reality
character
ministry
sitting
eu
sky
receive
selling
defeat
thanks
budget
walked
charles
pre
wear
ability
card
seat
##ia
learn
version
knows
olympic
prices
causing
ukraine
fully
spread
spanish
estimated
annual
trade
concern
runs
names
jersey
90
##6
finding
individual
absolutely
enforcement
stone
ruled
linked
younger
##ness
eastern
freedom
upon
singer
tests
window
pregnant
qaeda
romney
boat
draw
300
ceremony
daniel
amazing
attended
practice
estate
seem
museum
brand
nature
voice
traditional
murray
views
employees
mp
ones
items
70
2004
alex
voters
decade
hill
answer
controversial
##able
faced
ebola
increased
unit
spokeswoman
terrorist
protection
parliament
powerful
##7
##ra
##th
visitors
exactly
spotted
scott
value
growth
screen
severe
alive
midfielder
owners
parties
sources
responsibility
profile
##9
crimes
birthday
boyfriend
bedroom
joe
garden
keeping
visited
haven
occurred
highly
fair
suspended
approach
ill
fund
bottom
boston
touch
learned
vice
regime
watched
remained
kate
pick
shock
worse
sheriff
agreement
consider
sleep
mass
determined
pounds
display
hoping
80
assistant
physical
dream
via
developed
glass
drinking
ryan
respect
beginning
##ic
cities
protest
missed
democrats
seeking
opinion
arm
programme
jack
tournament
34
##ey
app
serving
banned
worker
enjoy
##8
authority
begin
attempted
pleaded
foundation
award
fly
lake
suspected
science
protests
domestic
picked
multiple
web
simple
nice
survey
tweeted
shocked
governor
bomb
ruling
actress
pilot
##v
taylor
rose
mike
separate
louis
required
36
channel
tragic
measures
breaking
owned
lines
prepared
newcastle
##rs
particular
behaviour
seconds
paying
cell
sort
request
various
management
investigating
insurance
artist
doubt
recovery
accept
duty
terror
band
wilson
location
prosecutor
ireland
conflict
citizens
addition
tragedy
korean
israeli
shirt
gives
sit
serve
writing
regular
quarter
christian
language
flat
threatened
finished
activity
standards
journey
seriously
gang
environment
improve
navy
rain
clean
hurt
demand
confidence
books
vehicles
article
file
fish
stories
dad
emotional
sarah
clothes
defender
angry
mid
subject
ben
rule
sites
##na
witness
inspired
religious
pro
victoria
scandal
counts
##ne
legs
lawyers
witnesses
toward
expensive
videos
drop
turkey
amid
bag
product
mary
stands
reading
leadership
sound
advice
guests
scoring
politics
##x
surface
dinner
note
agent
credit
georgia
##el
hollywood
critical
fresh
shopping
tony
suit
fifth
diagnosed
chicago
escape
benefit
difference
2003
beauty
block
anthony
##te
trouble
cuts
scheduled
drivers
tree
championship
moments
author
38
sam
recorded
complex
rates
bay
funeral
ring
pitch
fears
loan
kick
42
primary
carolina
produced
nick
wish
equipment
pool
ocean
48
memorial
responded
song
##ry
taliban
obviously
surprise
tory
failure
repeatedly
finish
supreme
progress
photographs
declined
brothers
candidate
37
luxury
remove
stood
matches
dressed
virginia
production
dozens
airlines
ed
steps
simon
colleagues
iphone
sides
fa
wake
uses
indian
connection
limited
worried
celebrate
lucky
andy
incredible
additional
status
income
accounts
expert
clubs
fox
attend
changing
canada
user
egypt
prove
##ling
add
rich
offers
retired
relatives
score
photographer
directly
lewis
horse
unique
institute
bond
mile
400
hunt
thank
plus
declared
material
passenger
##million
struggling
temperatures
gaal
bear
mps
audience
standard
quick
lawsuit
none
allowing
meaning
feature
cambridge
grow
systems
fuel
2001
kevin
text
targeted
neck
hasn
entered
##la
turning
shots
##ting
machine
criticism
offering
youth
43
tiny
whatever
falling
editor
truck
founder
critics
heat
symptoms
elections
bin
ambulance
climate
returning
individuals
conduct
generation
cook
aren
danger
tottenham
deadly
##ch
province
youtube
urged
militants
setting
##ist
wild
celebrity
filled
39
necessary
kennedy
unusual
favourite
bringing
devices
virus
buildings
reduce
active
push
kelly
jordan
everybody
direct
coalition
stephen
##ta
soldier
sending
adults
reaction
sen
session
47
transfer
prosecution
sat
bail
plant
upset
flights
effects
noted
ferguson
scale
agents
originally
wounded
44
diet
circumstances
secure
houses
grew
questioned
receiving
signing
41
acting
completed
introduced
ride
birmingham
2002
sick
2015
reform
fraud
nasa
46
reveal
putin
truth
feels
spring
overall
cat
cameras
false
apart
involving
festival
golf
princess
rising
##ies
corner
friendly
suggest
55
terrorism
providing
shoot
studies
commercial
increasingly
businesses
historic
enjoyed
threats
maria
threatening
decide
affair
seek
southampton
tribute
affairs
jose
daughters
exercise
stolen
disaster
housing
regularly
activities
fighters
damaged
planet
fat
japanese
mountain
scottish
develop
ceo
arizona
kitchen
matt
poll
destroyed
exchange
08
warm
debt
##ter
facility
steven
initial
backed
saved
09
inquiry
spoken
treat
joint
killer
tea
larger
content
morgan
confident
pushed
journalist
memory
adult
suspects
rooney
babies
banks
presence
knife
teachers
dating
funding
communities
extreme
adam
designer
surrounding
hero
sad
smoke
eric
experienced
influence
holds
sons
duchess
bigger
hong
catch
##w
failing
learning
shape
stores
transport
edge
miller
guns
welcome
pieces
leaves
located
understood
illness
07
villa
split
creating
journal
moon
faith
resort
##land
complaint
models
keen
species
suggests
atlanta
drove
please
specific
likes
busy
wore
potentially
struggle
##son
announcement
farm
lying
policies
ford
davis
survived
wind
plastic
assad
ongoing
alan
discuss
diego
argentina
ham
journalists
closer
produce
route
attempts
argued
##st
mum
miami
easily
weapon
gary
pull
resources
06
port
allows
olympics
ii
measure
explain
prior
happens
panel
helicopter
driven
complaints
strength
zealand
email
abc
harm
skills
beaten
52
dna
kong
mourinho
definitely
academy
anniversary
option
contacted
legislation
sought
interested
costa
surveillance
focused
dramatic
tears
afghan
wood
awards
phones
wine
investment
accepted
decisions
clash
relations
blog
section
colorado
yorkshire
determine
fled
heads
effective
conversation
miliband
everton
proved
prize
causes
49
unlikely
el
advantage
happening
##ted
2000
knowledge
path
count
respond
letters
identity
shut
background
discovery
breast
veteran
evans
silver
tomorrow
beating
wing
possibility
scheme
passing
pope
chemical
identify
intended
operating
mostly
fallen
flag
hole
hospitals
inquest
nor
staying
crashed
lights
visiting
surprised
enter
tim
rushed
mistake
pop
ministers
stuff
tells
bright
numerous
deeply
immediate
findings
anger
net
marine
valley
recovered
earned
rooms
blame
tennis
gop
massachusetts
elizabeth
05
choose
ohio
verdict
stock
viewers
grown
##ng
suarez
yellow
lots
cast
plays
trained
construction
write
greatest
bars
frank
rebels
shocking
desperate
photograph
nobody
dollars
stress
beijing
ronaldo
conducted
featured
travelling
indeed
##os
murdered
tourists
fought
dance
headed
publicly
moscow
smaller
testing
anderson
teen
limit
##ham
politicians
iraqi
rejected
celebrates
gathered
raising
##re
nurse
supposed
##ka
republic
proposed
landing
##ts
airline
developing
distance
grandmother
sparked
relief
##da
willing
films
sexually
direction
chances
chest
jet
inches
##or
##ation
possibly
mom
##ion
delivered
activists
150
##am
widely
increasing
ali
native
arab
meat
zone
buying
##field
unless
options
entertainment
ian
considering
presented
acts
candidates
##as
performed
agree
neither
michelle
struggled
hamilton
privacy
challenges
ray
personnel
cards
coverage
stayed
noticed
ticket
lane
largely
devastated
vulnerable
incidents
saudi
heading
vast
somebody
guys
stuck
debut
stunning
##ner
harris
imagine
medal
windows
cells
metal
basis
employee
funds
factor
henry
supported
heavily
##um
54
manhattan
golden
##ian
teenage
perform
mouth
51
scenes
worldwide
client
kent
promised
53
trees
marijuana
fifa
detectives
elected
controversy
clothing
confirm
francisco
cool
ultimately
semi
slow
plenty
embassy
swimming
yourself
600
impressive
established
woods
libya
sterling
roads
yard
commissioner
nbc
possession
agencies
75
strategy
allen
seats
##ma
blow
wonderful
hoped
weren
fatal
shoes
##ble
duke
humans
helps
rival
##ism
impossible
coffee
##ity
behavior
chain
alexander
detective
neighborhood
thrown
engine
quiet
racing
2016
jim
remaining
##et
minor
combat
charlie
asia
buried
controlled
supporting
filmed
properly
landed
##ft
abandoned
islands
offences
terrorists
supply
brian
blamed
talent
dismissed
civilians
listed
excited
approved
terrible
suddenly
waters
mexican
map
wayne
investigate
truly
parking
cutting
instagram
doors
tech
pupils
goalkeeper
sharing
messi
tonight
divorce
##ar
bills
##ll
express
prisoners
complained
drawn
ward
oscar
defendant
adds
nfl
800
talked
code
marks
capture
boost
knowing
thoughts
bob
gain
gov
offensive
iranian
appropriate
classic
forest
nato
56
era
auction
consumers
infection
internal
division
assistance
digital
incredibly
elsewhere
pet
reputation
abu
graham
tested
##ville
deliver
##ment
programs
continuing
patrick
pointed
smart
04
exposed
pink
chose
link
bags
replaced
ambassador
elderly
matthew
hidden
milan
courts
un
##less
targets
seized
grant
comfortable
dozen
resident
tower
easier
hate
lay
knee
interests
normally
walker
parent
locked
bottle
disappeared
voted
granted
horrific
commander
rugby
arrival
defending
drew
referred
65
smoking
task
negative
ancient
welfare
opinions
kerry
notice
tie
arrive
reduced
remote
jason
muslims
analysis
pennsylvania
regional
hitting
remarks
tickets
balance
customer
partners
spirit
##wood
counter
realised
wave
mothers
stabbed
hull
mate
basic
watson
##nt
cabinet
closely
rep
cooper
honor
affect
stepped
totally
couples
nose
thinks
rivals
lunch
flowers
statements
pregnancy
strikes
£2
concluded
solution
independence
roof
fitness
grounds
notes
conviction
atmosphere
awarded
explosion
terry
unknown
##ge
risks
suffer
jonathan
sees
survive
worry
empty
abroad
57
veterans
vegas
slightly
khan
corruption
argument
fantastic
phil
sugar
dutch
innocent
jr
francis
fake
document
ok
rice
wildlife
episode
surrounded
coroner
unfortunately
vital
prompted
forget
powers
collapsed
sight
understanding
medicine
tied
software
santa
solar
winds
dealing
flew
waste
judges
communications
##ck
ashley
approached
replied
palestinian
orange
neighbours
require
firefighters
houston
lies
sporting
organisation
calm
robinson
ukip
sanctions
gaza
joining
smile
unclear
otherwise
liberal
starts
encourage
zoo
searching
testified
##ri
extraordinary
followers
drama
criticised
##ty
sets
plot
leicester
procedure
defend
broadcast
enjoying
naked
##ford
250
cctv
feed
alternative
appearances
58
badly
emma
moore
immigrants
1999
provides
mars
lifestyle
posed
arriving
click
plea
dying
cruise
luis
##by
usa
gulf
christopher
feared
jennifer
chancellor
hadn
las
laden
cocaine
colour
pushing
tackle
laid
wenger
interior
attacking
christie
iconic
cricket
solely
engaged
scared
michigan
bird
pose
disorder
bayern
explains
relatively
senator
stomach
prepare
rural
sleeping
patrol
melbourne
recalled
canadian
proposal
favorite
afford
drunk
hat
depression
specialist
behalf
cleared
jump
gordon
crystal
matters
dry
minimum
gift
oh
clinic
rodgers
preparing
connected
joseph
bike
edward
islam
pub
permission
invited
##ur
celebrities
dedicated
thompson
aimed
sentencing
inch
jewish
shouldn
turns
lift
entirely
pakistani
cia
escaped
apparent
##ro
moves
03
jumped
environmental
jamie
vision
overseas
catholic
ending
mates
facilities
##ier
leads
threw
compensation
##well
founded
weekly
atlantic
summit
walls
hughes
involvement
birds
theft
obtained
therefore
hernandez
milk
tweet
brutal
devastating
saving
informed
becomes
detained
achieve
referee
interesting
trend
conspiracy
59
##ha
greece
sisters
roberts
leeds
jessica
ideas
documentary
chosen
reporting
permanent
accepting
reaching
drinks
essex
orders
guide
sharp
beer
rio
campbell
irish
kid
formed
turkish
meal
replace
trapped
waves
##ce
danny
rocket
territory
wins
roll
consequences
investigated
##ized
dispute
commitment
99
childhood
sixth
wright
upper
democracy
shoulder
stick
rob
maximum
suspicion
packed
##tion
shares
racist
raped
posting
fewer
anywhere
euro
scores
##ke
ad
properties
knocked
##ya
sunderland
philip
dancing
joy
stated
disappearance
aggressive
hampshire
widespread
shops
nigeria
fame
disappointed
sector
maintain
presenter
testimony
variety
chair
projects
1998
characters
fighter
bathroom
grey
string
abused
begins
campus
kicked
laura
labor
pacific
crazy
capable
jimmy
payments
writer
raid
command
perry
promise
newly
performing
700
tall
opportunities
proper
commons
shift
votes
asian
adopted
rush
mansion
describe
afraid
admits
clark
sandy
commentary
dallas
represent
highway
typically
length
metres
neil
occasion
swansea
album
zimmerman
insists
affiliate
follows
legend
taxes
teeth
referring
extended
bowl
planes
delighted
compete
headquarters
crucial
apply
rangers
rescued
capacity
pleased
bombing
generally
robin
sweet
intense
mystery
ukrainian
structure
dan
fort
guards
clegg
brazilian
##do
bone
contest
egyptian
unlike
wonder
battery
ties
hillary
congressional
attempting
breakfast
##ler
overnight
priority
holland
awareness
resolution
investigations
magistrates
gym
poverty
bristol
officially
fee
missouri
burning
wimbledon
mine
stoke
athletes
marked
anna
dubbed
yards
taught
outbreak
speaker
##ised
existing
offence
trafford
chocolate
joke
##men
throw
familiar
detail
reveals
shadow
temperature
anybody
attending
defended
firms
governments
demanding
tight
inspector
regarding
wounds
studio
brief
gap
cultural
demanded
##ine
edwards
recording
platform
arrests
unveiled
exclusive
apology
crying
justin
davies
##de
oklahoma
teaching
mitchell
tank
loves
routine
contained
describes
aim
brilliant
travelled
acknowledged
punishment
teenagers
mohammed
consumer
fruit
rebel
promote
demands
exciting
interviewed
factory
handle
links
##se
jurors
restaurants
roy
jane
alert
blair
sits
hanging
comedy
grandfather
effectively
spokesperson
robbery
trophy
transportation
##led
listen
opponents
clients
loving
rodriguez
taste
funny
registered
movies
appointed
hopefully
fees
featuring
riding
sean
purpose
combined
basketball
##ate
celebration
improved
##ni
afterwards
temporary
marathon
revolution
checks
formula
strange
lie
foster
osborne
carter
02
bull
stewart
di
911
sounds
bruce
desire
barely
locations
collected
satellite
aside
cardiff
blast
horror
globe
pace
hired
jeremy
volunteers
guest
advertising
cream
plants
applied
contain
illinois
theory
closing
markets
philadelphia
amanda
poses
kingdom
usual
amazon
delivery
lisa
grade
voting
##ns
quit
bizarre
falls
goods
civilian
deals
diamond
multi
tourist
1997
gained
rolling
##lin
luke
representatives
advance
core
grave
papers
application
types
hills
neighbors
crews
screaming
mixed
branch
producer
winners
celebrated
russell
gerrard
writes
stronger
rally
vessel
gender
puts
ipad
finals
taxpayers
occasions
tens
allies
bell
##j
traveling
memories
mount
chicken
convinced
killings
cable
positions
democrat
neighbour
burned
electric
jay
booked
commit
creative
crowds
hiding
tries
abbott
bench
worn
bound
oxford
tip
appearing
slowly
breathing
locals
experiences
package
connecticut
martinez
monitor
requires
detailed
organizations
blind
brooklyn
cap
cbs
craig
carbon
remarkable
posts
brave
represents
supplies
bath
##ise
criminals
honour
marketing
speculation
wealth
##ize
aboard
##der
comfort
drone
diplomatic
suggesting
values
facts
hide
obvious
relationships
classes
gates
degrees
meals
hotels
wealthy
##tt
firing
aviation
representative
00
balls
forever
youngest
##ping
recover
seattle
westminster
mccain
inspiration
burns
encouraged
suspicious
minority
repeated
pm
wheel
inappropriate
settlement
adams
meetings
celebrating
approval
rail
##co
infected
munich
zero
delay
entering
painting
artists
condemned
entry
taxi
dave
heritage
flood
advised
tape
alabama
soft
personally
accusations
resulted
derby
ends
religion
cats
hits
technical
flooding
throwing
foods
walks
attached
successfully
attracted
shark
attorneys
salt
pound
warrant
belgium
jean
baseball
motion
crossing
mario
employment
interviews
1980s
tend
describing
acted
negotiations
honest
lawmakers
celtic
mix
castle
ordeal
apps
cited
sensitive
downing
visits
checked
hell
pack
specifically
constitution
chase
anonymous
ross
eve
praised
utah
execution
master
filming
outcome
outrage
ages
bombs
debris
roger
formal
searched
portugal
peaceful
denies
enormous
twin
01
harder
importance
##ki
grace
earn
hurricane
1990s
##ad
howard
liked
strongly
height
materials
duncan
switzerland
citizen
glasgow
indicated
containing
humanitarian
significantly
##va
racial
probe
shelter
horses
opposite
roughly
hunting
monitoring
opposed
protected
appeals
desert
oldest
cope
emails
advanced
button
everywhere
contrast
susan
hart
household
procedures
electricity
hodgson
holder
peak
funded
tensions
garcia
mirror
visible
managing
1970s
tradition
cuba
profit
iron
keeps
medication
mention
colleague
angel
conservatives
anne
detention
grabbed
neighbor
passion
titles
bosses
reforms
amy
mountains
fortune
blocked
iowa
referendum
uncle
constant
fed
hiv
stations
snowden
wars
nurses
striking
proceedings
predicted
chef
statistics
fishing
answers
estimates
thailand
entitled
gunman
gear
expecting
manage
£3
frozen
covering
collapse
networks
cornwall
therapy
clock
##ee
homeland
##at
katie
brings
drawing
cole
personality
accompanied
edinburgh
teens
ships
hosts
speaks
1996
proof
marry
##ive
faster
##den
revenue
mini
owns
extensive
flames
purchase
stable
units
offices
boxing
requests
stuart
competitive
contains
stages
balotelli
pilots
factors
fix
witnessed
constantly
pride
industrial
trips
representing
belief
sustained
trains
##ba
collins
toll
manner
tracks
deny
disabled
correct
discussed
furious
samsung
vowed
establish
represented
bureau
songs
lovely
mcdonald
##billion
regulations
citing
urban
##ze
painful
waited
dubai
1994
phillips
activist
fill
pulling
strip
sheffield
studying
collect
hearts
##ful
handling
operate
junior
kenya
underground
toilet
wound
##ally
error
discussion
typical
syndrome
communication
tiger
impressed
aston
approximately
centers
managers
missile
assaulted
argue
twins
##no
begun
ourselves
retirement
transferred
homeless
polls
petition
survivors
##per
soccer
bears
adviser
amounts
##ring
lifted
migrants
nelson
##to
computers
finance
##line
achieved
lessons
actual
scientific
except
qpr
selection
arts
margaret
bones
grateful
extent
trail
dressing
odds
prevention
whilst
register
barbara
aaron
maryland
bullet
directed
greek
somewhere
touched
armstrong
prospect
arabia
forms
sgt
mercedes
arena
abortion
swiss
electronic
62
objects
lifetime
warren
intent
castro
demonstrators
admit
analysts
blaze
flu
physically
torture
holidays
pages
sanchez
frequently
exhibition
reid
analyst
beckham
##ney
concept
mandela
hamas
stroke
supermarket
races
trading
mainly
dean
elite
le
discrimination
##ga
charlotte
eggs
silence
##il
headlines
helen
switch
rarely
1995
microsoft
avenue
exit
essential
gp
library
breach
attitude
consultant
garage
legacy
##les
64
equivalent
encounter
##ish
telephone
picking
towns
traveled
enemy
##ell
restrictions
uniform
boots
gallery
disney
##ous
noise
tweets
equal
reference
popularity
relative
absence
unemployment
footballer
smartphone
spectacular
investors
laugh
seasons
graduate
yemen
posing
warnings
clarke
paint
metropolitan
beneath
roman
smashed
strict
earthquake
stealing
atletico
backing
delayed
malaysia
rounds
survival
aftermath
detroit
##ko
militant
nervous
feelings
painted
rachel
perfectly
excellent
lib
recovering
reflect
donations
branded
dreams
addressed
##id
##ger
tourism
resigned
gate
welcomed
engineer
websites
businessman
sudden
safely
reads
stunned
forcing
poland
shore
bailey
ethnic
midlands
galaxy
pentagon
stretch
chaos
mall
ann
nationwide
combination
targeting
participants
##li
72
destination
berlin
greg
inmates
stole
payment
emily
nazi
concert
##est
fields
alarm
##lo
frame
rocks
carefully
partnership
dawn
spell
circuit
cafe
##ve
islamist
entrance
thick
finger
loud
ordinary
realized
crossed
keith
throat
##ard
treating
jesus
broad
##ated
infrastructure
bottles
flown
hundred
viewed
surrey
shoppers
cheap
luck
treasury
bullying
challenging
clashes
fail
tired
biden
salary
fitted
hawaii
sand
mistakes
louisiana
refugees
paramedics
recommended
dates
residence
autumn
controls
radical
dollar
imposed
exact
belt
##berg
corporation
max
guess
burst
designs
regions
quoted
singing
lawrence
mississippi
##worth
category
jacket
novel
parade
sweden
inter
clip
destruction
shame
spurs
kansas
appointment
deployed
photographed
£5
outfit
practices
collision
baghdad
67
encouraging
parked
gathering
instance
defensive
probation
louise
nights
baker
intention
employed
knight
performances
protecting
favour
juan
austin
##ide
63
offenders
tools
object
cry
initiative
literally
prominent
jong
minnesota
flow
itv
cousin
guardian
departure
roles
oliver
rear
murphy
remembered
forensic
principal
deserve
realise
hosted
obesity
questioning
hunter
outstanding
regardless
indonesia
intervention
##age
somalia
wrapped
seventh
decline
weak
organised
finds
licence
politician
##ca
choices
savile
kidnapping
retail
assets
toys
cloud
##way
barclays
breaks
66
grass
criticized
soviet
basically
borders
settled
corporate
exist
gather
alaska
guidelines
deemed
ultimate
engineering
bloody
inc
lt
diabetes
license
convention
gardens
exposure
fault
tokyo
seal
tennessee
rome
josh
leaked
lowest
##ov
nigel
68
youngsters
jeff
hacking
mentioned
qatar
studied
executed
pistorius
devon
colombia
illegally
1992
treatments
separated
crack
pending
motor
thatcher
passport
##ging
reception
toy
skull
smiling
parks
tool
cheese
fined
85
oregon
smiles
muscle
battling
prayers
assessment
selected
vs
pole
sierra
carries
copy
telegraph
defendants
1993
##it
dominated
feeding
trafficking
thin
soil
increases
airports
confessed
compound
britons
midnight
clinical
proposals
theme
powered
cannabis
ignored
sony
##ff
troubled
beloved
isolated
color
roma
shed
nba
shirts
involves
virgin
##bury
gadhafi
bishop
admitting
95
upcoming
agenda
##sa
android
##ah
harassment
libyan
##io
del
diana
##rd
protective
engagement
holmes
asylum
darren
pursue
unacceptable
www
legally
welsh
maintained
returns
trick
purchased
notorious
stressed
venue
antonio
anymore
powell
lucy
barry
rebecca
ups
limits
cycle
netherlands
surgeon
sentences
mad
producing
magic
opponent
concrete
ski
tips
federer
plate
stopping
elements
jon
##han
revealing
spencer
wet
burnley
ear
theatre
ted
douglas
comedian
wanting
occur
pronounced
steel
mood
transplant
viral
£10
moyes
rover
donated
reserve
boats
dragged
murders
sussex
kentucky
campaigns
lover
youngster
letting
solid
machines
denver
careful
hannah
##ti
diagnosis
commonwealth
fires
30pm
prix
simpson
frustrated
gray
assist
farmers
1990
suburb
##tor
requested
screening
##dy
everyday
kyle
cake
bradley
schedule
resulting
kiss
qc
##ant
brendan
tesco
finishing
cleveland
label
overcome
extend
##nce
courtroom
alliance
freed
ranked
coat
dropping
julie
sportsmail
boeing
reserved
parker
£100
ahmed
rick
profits
explosive
giants
savings
horrible
actors
burn
##ky
boxes
grief
nancy
empire
engineers
tear
sessions
historical
replacement
healthcare
volunteer
##ir
lions
championships
brands
sacked
cliff
downtown
ease
manuel
talented
turner
indiana
substance
valuable
caring
landscape
shaw
bitter
##ps
fence
jumping
wider
61
mcilroy
athlete
musical
siblings
operated
pc
shaped
signal
gifts
1960s
lauren
trials
vietnam
climb
hollande
somehow
cooking
graphic
wage
##me
realize
teach
delays
genetic
secured
toddler
improving
kurdish
midfield
swim
listening
examination
addiction
breath
cape
recognition
##mi
consistent
unprecedented
discussions
felony
regret
terrified
nightmare
portrait
##ron
differences
invasion
egg
swept
bleeding
dealt
announce
calories
blocks
parliamentary
tories
sue
courage
slam
##mer
winger
diseases
vatican
creation
engage
##di
hardly
heroin
manslaughter
institutions
wooden
conversations
explosives
catherine
panic
fate
romantic
heroes
runner
promising
porn
seemingly
emirates
rent
rifle
discover
nevada
pledged
generations
handful
kilometers
sophie
##ising
neymar
passes
theater
print
starring
lincoln
pocket
evil
genuine
recall
brady
tablet
select
terminal
trauma
raf
reasonable
sergeant
pointing
hostage
anxiety
deficit
dresses
120
constitutional
claire
runway
competing
wisconsin
arguing
dust
massacre
singapore
laughing
mosque
lung
responding
aims
intensive
refusing
69
rapidly
gen
methods
wembley
bite
bride
difficulties
gps
affects
holes
3d
seed
homicide
knox
keeper
underwent
naturally
awful
urging
monaco
##don
reward
affordable
chiefs
examined
launching
method
conclusion
convictions
spy
1989
boasts
boehner
equally
damages
relaxed
donald
owen
favor
loose
arrives
brussels
hip
lancashire
saint
covers
racism
##head
bacteria
glad
caribbean
triggered
##sh
1991
transition
suspension
confronted
sized
camps
unconscious
gotten
samples
expenses
severely
organized
executives
angela
demonstrations
tsarnaev
elementary
carlos
kidnapped
celebrations
weighed
wheelchair
cdc
currency
prisoner
brooks
cabin
shell
smell
challenged
ferrari
tactics
movements
storms
edition
respected
radar
amendment
oxygen
complicated
cleaning
rough
grab
vladimir
ranks
storage
impression
explaining
stops
nursing
slammed
tube
circle
brighton
inner
sudan
colours
lasted
technique
mitt
chat
aggravated
kit
terrifying
dirty
surprising
attract
buyers
lab
shake
caroline
recession
function
facial
sadly
pizza
parole
samantha
sergio
substantial
carl
forgotten
larry
riot
djokovic
orleans
promises
applications
repair
stones
##ay
maps
shouting
fixed
##ls
explanation
warn
bobby
champagne
hang
lopez
##izing
marie
tribunal
widow
phoenix
hook
judgment
briefly
damaging
aids
assembly
watches
rolled
persie
scientist
universe
continent
lambert
uncovered
desperately
ideal
banking
extremists
firearms
nicole
20th
federation
earning
repeat
somerset
disturbing
emerging
bale
obamacare
southwest
odd
chile
fingers
prevented
spots
highlights
anfield
meters
asks
##za
lengthy
queensland
scan
woke
ladies
communist
asleep
highlight
indicate
peninsula
wishes
apologised
holy
pets
resignation
grandchildren
necessarily
eighth
bolton
expectations
situations
trainer
tissue
cairo
philippines
5million
taxpayer
tracking
dramatically
norway
motivated
northeast
answered
longest
perez
lined
dumped
vacation
accidentally
soul
expand
ron
gross
##ot
glasses
ranging
climbing
duo
medals
liver
pot
shootings
hitler
cruz
duties
techniques
haiti
morris
rises
fairly
percentage
temple
installed
joked
evacuated
readers
columbia
undergo
nowhere
stevens
disappointing
catching
lock
railway
virtually
mentally
stupid
prefer
mph
lethal
settle
campaigners
liquid
pension
shower
ronald
exploded
torn
pattern
farage
##ds
webb
jets
openly
rid
comparison
fernando
coastal
displayed
promoting
hopeful
employers
lebanon
vincent
destroy
dining
divorced
herald
cigarettes
bread
##kin
cristiano
experiment
spotlight
cemetery
newspapers
resolve
perspective
explore
presidency
ridiculous
carrier
19th
arguments
tablets
anyway
deliberately
symbol
masters
flags
tunnel
staggering
unidentified
rivers
cycling
qualified
underwater
amnesty
liberty
publication
radiation
benjamin
fleet
overwhelming
vaccine
fastest
carpet
preliminary
uefa
##ists
erupted
sri
signature
estimate
reducing
bombings
deadline
palin
##gan
frustration
wreckage
##km
cancelled
punched
freezing
appreciate
operator
strain
losses
recognize
closest
institution
##wa
chamber
cosby
snapped
airways
polish
substitute
violation
relevant
leather
surge
71
##ker
phase
recognised
famously
rating
regarded
supports
lloyd
penalties
subsequently
selfie
divided
prompting
heels
mohamed
£4
jews
queens
suffers
presents
ads
cheaper
distress
nottingham
heathrow
et
statue
virtual
middleton
poster
naval
abbey
narrow
accusing
indictment
##ating
##ial
##ow
ankle
networking
harvard
nsa
kinds
embarrassing
correspondent
##mph
ferdinand
sunshine
aired
autopsy
billy
legitimate
swift
en
wages
closure
##go
item
snap
touching
triumph
alerted
flooded
ratings
recognise
burglary
raw
##ped
praise
unfair
highlighted
maker
leon
unexpected
gareth
unions
associate
conservation
latter
psychological
misconduct
judicial
advert
guidance
uruguay
awaiting
urgent
restore
tone
mortgage
absolute
expects
foul
miracle
flash
jeans
revenge
strategic
lion
stability
confused
longtime
athletic
attractive
fierce
orlando
spirits
apologise
silva
crackdown
cure
acres
coaches
recognized
dangers
reduction
bomber
existence
academic
ceiling
desk
submitted
tropical
biological
tobacco
politically
festive
bronze
consumption
##ding
alexis
makers
motorists
furniture
subsequent
harrison
stunt
chambers
corps
electrical
handled
partly
30am
participate
steal
yacht
guinea
traumatic
charities
##ran
files
revelations
murdering
professionals
emotions
extremist
karen
searches
forecast
900
##ut
solve
benghazi
lists
moral
billionaire
eligible
menu
mess
producers
formally
rapid
northwest
arranged
keys
supporter
brom
devoted
donor
warming
announcing
tag
travelers
lionel
thus
equality
##ina
dementia
petrol
adventure
loyal
vegetables
fever
nadal
ingredients
bullets
demonstration
missiles
bloomberg
disability
lesson
opens
todd
harsh
surely
trigger
basement
nightclub
quarters
relation
avoided
capitol
silent
ripped
slipped
##dale
diving
kicking
nominated
qualifying
arthur
rely
forum
cooperation
removing
embrace
surviving
##ming
jerry
tehran
fiscal
74
prosecuting
retailers
robertson
voices
comic
involve
rated
sunni
hungry
tornado
proven
spreading
##ino
beaches
depending
weighing
##ent
brisbane
minds
murdoch
delhi
##pe
kidney
thames
cathedral
somewhat
hammer
whenever
guarantee
converted
universities
subjected
attacker
ranking
offender
thousand
update
sealed
toronto
##ana
73
legendary
serves
##house
arsene
automatic
nsw
vessels
chavez
connect
palm
drones
missions
pardew
casey
centuries
chemotherapy
residential
undergoing
preparation
aerial
ally
battles
stem
knock
tattoo
belgian
trio
albert
hailed
indication
resistance
iii
cigarette
stake
charging
contracts
hunger
satisfied
wire
bradford
lets
portion
mubarak
conscious
introduce
cohen
improvement
urge
marc
vanished
watchdog
insisting
swedish
ivory
halt
robot
helicopters
blonde
spare
valencia
hostages
hugely
jan
mask
slip
promotion
sophisticated
succeed
reunited
delivering
consent
frequent
glory
pellegrini
suits
unaware
77
loans
rumours
arctic
nomination
org
starred
jewellery
accurate
dennis
shouted
automatically
communicate
chemicals
barrier
roberto
##nd
travellers
visa
wolf
##un
liberia
removal
falcao
rosberg
floating
merkel
cargo
stripped
##ary
##be
checking
excessive
##ss
classified
photography
landmark
publicity
stream
blown
elephant
context
latin
stabbing
##zi
18th
superior
aunt
palestinians
dortmund
glamorous
instructions
scrutiny
affidavit
boris
xi
generated
roots
£20
commonly
sara
donate
educated
unrest
determination
excess
tracked
attackers
lasting
spacecraft
loaded
tributes
header
##tic
tipped
##gate
berry
blues
governing
##tte
focusing
tumour
customs
lancaster
pants
prescription
21st
printed
suv
tons
universal
dated
kiev
prestigious
stance
whale
portuguese
refugee
underneath
immune
jill
fantasy
pensions
cuban
difficulty
preventing
reagan
pen
thirds
cruel
juventus
punch
scary
sub
bashar
calendar
orbit
flee
infections
precious
transformed
craft
joshua
1986
casualties
lottery
underwear
boom
comeback
boot
mason
billions
uncomfortable
lampard
patterns
pupil
achievement
researcher
violated
cops
unfortunate
pit
shooter
essentially
goodbye
singh
##que
##town
assaulting
countryside
creatures
£50
beside
uploaded
appealed
christine
coma
worrying
constable
##lbs
1988
stamford
comprehensive
unnamed
disciplinary
equipped
aguero
colin
thai
examine
ferry
tail
fabregas
happiness
hazard
resign
rogers
lap
moderate
superintendent
struggles
elaborate
sullivan
random
tours
excitement
generous
southeast
liga
overweight
##sing
fleeing
risen
1982
classroom
julian
nathan
villages
aide
barnes
ireport
wells
##au
buckingham
cyber
infamous
noting
violations
plain
icon
ownership
solo
haul
sheet
trailer
warner
collecting
defeated
organs
spa
trucks
76
adrian
discussing
maine
peterson
consecutive
draft
toxic
acceptable
accidents
friendship
lit
manufacturers
purposes
pyongyang
insist
regard
##ol
jokes
olds
endured
flower
survivor
undercover
##king
commissioned
wheels
useful
bieber
greeted
raises
engines
fights
pat
marines
thrilled
pray
deciding
jerusalem
ammunition
canceled
deputies
establishment
expression
excuse
shoulders
euros
relating
appealing
redknapp
stepping
##bo
sum
gesture
pastor
##ization
richardson
caps
unhappy
beef
suggestion
sample
fiancee
norman
distraught
conceded
demonstrate
slept
amateur
australians
leone
speeds
qualify
passionate
prayer
attraction
heated
neighboring
nypd
membership
nicholas
bennett
1984
obtain
viewing
designers
henderson
innocence
palmer
contribution
78
rings
alice
audio
rubbish
mounted
##q
brad
humanity
82
brotherhood
signals
##sen
bet
deserves
renowned
screens
supportive
##ons
blake
pledge
millionaire
pressed
stranded
##ities
dialogue
filing
displays
##lb
cared
happier
burden
conducting
description
decent
depth
monster
suite
respectively
surgeons
copies
tale
mud
attendance
lightning
##ova
investigator
restored
doubled
periods
coaching
f1
regulation
argentine
laboratory
damascus
spin
ate
gangs
rafael
contribute
abusing
requirements
newborn
spray
battled
developers
##ny
swing
infant
pornography
walsh
liam
subway
washed
hire
recalls
##ini
convince
households
rehabilitation
presidents
opener
sued
nerve
sharks
versions
indecent
react
andrea
merely
sing
fundraising
abdullah
ryder
inspire
lucas
smartphones
structures
linda
rev
temporarily
topped
demonstrated
timing
##pa
privately
tent
chronic
hudson
safer
carroll
durham
manning
accommodation
saints
£500
index
muscles
victor
arkansas
backs
christians
embarrassed
choosing
observed
shoe
suing
costing
integrity
abusive
advocates
approaching
reed
allegation
norfolk
reckless
addressing
creates
hometown
jo
hosting
##ning
apologized
clay
folks
maintenance
tyler
1980
da
wash
boarding
gunmen
artificial
julia
directors
anchor
inflation
mysterious
netanyahu
predict
##back
breathe
climbed
examples
instantly
obese
130
advocate
torres
fundamental
grandson
bang
motive
refuse
tanks
horrified
outdoor
##red
gene
airstrikes
dock
sturridge
wears
enable
stranger
deserved
beliefs
titled
monthly
potter
spends
considerable
alzheimer
phenomenon
cups
farmer
enjoys
##ms
habits
styles
opted
stanley
promoted
##hi
adoption
baltimore
raping
confrontation
wings
burial
##py
samuel
subjects
relieved
traditionally
10th
speeding
protein
donors
stephanie
broadcaster
fines
##one
##ure
influential
ken
marshall
extension
lavish
reviews
##kg
ac
fulham
belonging
toure
deck
##ue
disputed
nigerian
costume
receives
##ks
##more
fatally
observers
consideration
creature
sufficient
releasing
trace
mills
solutions
thanksgiving
1979
carol
snake
czech
tension
lorry
manufacturing
fi
beds
similarly
stored
burger
passage
shaking
shy
jackie
sharon
lieutenant
melissa
emissions
grandparents
intimate
casino
comet
texts
ensuring
peer
washing
bare
stark
hugo
##pm
emotion
##ged
meets
detected
fitting
moss
helmet
jeffrey
duck
denmark
reverse
ears
rolls
keane
paintings
expanded
bedrooms
impose
dorset
pure
staffordshire
##up
occupied
haram
coup
pills
hague
distribution
blew
aspects
slim
thanked
tsa
81
admission
connections
defenders
differently
organ
scenario
confusion
corp
donation
transported
anticipated
competitions
##ins
84
##ak
formation
li
sic
compromise
eddie
£6
hung
breasts
testify
coal
dylan
inspection
trusted
pollution
withdraw
column
transcript
79
##tone
cox
rapper
fury
venture
##rt
bunch
harvey
recommendations
modest
europa
gown
hacked
richards
##sed
citizenship
disgusting
delta
purple
rage
strangers
romance
assumed
nude
immigrant
twenty
siege
volume
andre
##ious
austria
educational
wives
dem
discipline
eager
experiencing
yeah
tmz
bold
complications
councils
fred
hayes
triple
20s
cinema
stairs
lighting
ugly
fda
ignore
ambitious
councillor
franchise
hussein
abducted
holly
unnecessary
authors
der
drives
va
350
chapter
cage
boko
##ick
##isation
metre
bernard
inspectors
rocky
belonged
intelligent
okay
gunshot
ballot
matching
crushed
harper
springs
trousers
auto
instant
leak
peers
##rn
complaining
suburban
tongue
clouds
principle
reviewed
cave
laser
##ters
1950s
venezuela
assisted
astonishing
staged
interim
competitors
measured
occasionally
propaganda
spectators
understands
##ber
complain
ninth
preferred
element
pleasure
secretly
spill
examiner
lungs
committing
mayweather
preston
punished
nobel
decorated
revolutionary
believing
shanghai
unbelievable
lovers
dame
eurozone
83
detect
norwich
oprah
switched
ebay
par
policeman
shipping
appalling
arrangements
hardest
ramsey
secrets
butler
discharged
restricted
morrison
outlets
rescuers
reminder
wise
bp
enemies
valued
addresses
easter
francois
##ving
osama
routes
commented
pile
developments
franklin
lanka
##ik
departments
sheikh
estranged
bonus
caution
disappointment
sandusky
jenkins
kabul
blackpool
programmes
shield
acre
completing
copyright
eaten
unemployed
gonna
proportion
practical
lips
chip
fiance
nicknamed
stormed
priest
resume
campaigning
killers
sochi
steady
beard
overwhelmed
sole
garner
katherine
trash
victorian
welbeck
wigan
##bs
clues
cruelty
alonso
bucket
cried
prepares
kane
endangered
photographers
raids
dj
handing
pleading
weighs
nominee
rockets
teammates
##bly
chips
counsel
##ja
dakota
insurgents
occupy
polar
1987
connor
marriages
reuters
hood
gardner
farms
preserve
root
weird
rosie
technologies
cease
chasing
musician
principles
twist
identification
nicolas
trump
fixture
##ned
contracted
dealer
pensioner
condolences
nephew
##cy
expense
mccarthy
epidemic
##ore
penn
breakthrough
coloured
countless
##ver
bearing
deeper
engaging
carney
towers
monitored
tampa
bible
lifting
centres
feedback
laptop
innovation
medium
realistic
shorts
tribal
##all
acid
harbour
insight
organisations
sheer
rented
serial
##ani
affecting
tremendous
expansion
neville
skies
##im
invest
autism
sexy
adopt
doubts
senators
emerge
scare
##tes
gradually
concentration
elephants
portland
pursuit
retreat
##ul
reflected
1985
crashing
hospitalized
lindsay
##ji
karl
bat
hackers
gonzalez
istanbul
creek
backlash
chapman
##ano
canal
dear
bodily
sally
secondary
fancy
wallace
detainees
sorts
underway
dignity
drought
joan
guantanamo
vintage
ashes
assured
fur
array
##tz
placing
renewed
irs
##bridge
marco
fc
consistently
hug
thieves
architect
gloves
mainstream
bolt
glimpse
11th
strengthen
cottage
efficient
medics
strongest
blanket
spider
suggestions
boxer
cop
malaysian
benedict
collective
sarkozy
coffin
perceived
buses
prosecuted
##ski
assess
coleman
imprisonment
primarily
defined
tougher
sweeping
assume
rubber
sailing
##ors
administrative
isolation
##zer
quest
teammate
inmate
##om
alleges
partially
ruined
ghana
banning
careers
ellis
manufacturer
anonymity
88
balcony
earnings
reacted
##ria
dig
tsunami
heather
strictly
theresa
planets
drag
vicious
graduated
negotiate
deceased
exceptional
specially
inquiries
updates
blacks
pig
posters
assaults
hispanic
##ai
assassination
suitable
origin
1981
belong
##her
laughed
proving
sends
distributed
puppy
rip
crimea
spiritual
obsessed
outfits
140
pirates
dive
delight
filling
surprisingly
##lan
poured
km
documented
kardashian
publishing
remembers
generate
penny
perth
forth
psychiatric
matched
apologize
amber
employer
chilling
outraged
reilly
whoever
sympathy
travels
dolphins
##rk
displaced
grip
introduction
gambling
##em
ew
exercises
heights
prisons
revelation
ash
shabaab
optimistic
stakes
bryan
fiction
floors
habit
natalie
respects
ruth
diversity
slide
rubble
credited
guilt
raided
seoul
courthouse
shutdown
donetsk
fireworks
pan
trademark
yoga
graves
phrase
audiences
stamp
grieving
heartbroken
sustainable
topic
briefing
knees
pursuing
makeshift
identical
nixon
runners
resolved
gunners
rehab
expanding
sensation
weigh
pochettino
prostitution
visual
andrews
archbishop
candy
jake
overturned
operators
ramos
retailer
wrongdoing
bergdahl
improvements
whereabouts
freeze
beyonce
custom
##ong
actively
lone
permit
spaces
parish
86
lawson
organic
extradition
gaining
tap
walter
workplace
spark
treaty
blackburn
unarmed
##ou
opera
visitor
£200
exists
deer
reflects
eagle
reluctant
indicted
madison
rory
bangkok
gove
luckily
polling
tigers
themed
allowance
trends
hey
lied
barca
destinations
17th
channels
shattered
##ane
juice
lesbian
suffolk
£30
##ett
astronauts
blocking
dc
firearm
rider
transit
##zing
bo
glenn
johnny
bali
shiite
##mann
bullied
wang
momentum
aspect
greatly
##ery
87
advances
bow
brush
yahoo
errors
faa
999
anxious
paula
upstairs
requiring
recommend
##lla
##off
flies
battered
threaten
kensington
breakdown
scam
ashton
developer
premiere
metro
shelves
amongst
clever
juvenile
heartbreaking
hockey
reactions
waist
balloon
populations
rica
floods
firmly
gravity
jaw
blasted
broader
uprising
rang
caption
poisoning
tripoli
aides
croatia
peru
norwegian
chuck
debts
explicit
happily
kings
conventional
diverse
volcano
relax
cheer
agriculture
magnitude
dancer
##ens
##res
borough
jenny
mediterranean
notified
quietly
riders
churchill
germans
neill
dictator
episodes
layer
rihanna
sounded
ultra
banner
montana
wilshere
retire
wherever
lucrative
brick
insider
architecture
gibson
##ties
ethics
romania
tortured
martha
##hill
mandatory
nursery
valentine
comply
plunged
somali
joel
mining
apartments
bands
cute
sensors
pearson
pipe
electoral
reynolds
vet
austerity
whistle
permanently
crowded
nasty
paedophile
organizers
pistol
sells
sizes
christ
compare
airplane
aleppo
cheek
escorted
worries
persons
plates
##ions
16th
contaminated
persuade
powder
unpaid
bmw
id
phillip
##ice
advisers
danish
migration
reaches
##ite
##low
1983
shades
modelling
breed
lodge
finances
observatory
soap
cyclist
seas
windsor
##port
sooner
gunfire
lobby
oral
contents
contemporary
contractor
uncertainty
accountable
regiment
acknowledge
brien
pippa
stricken
tommy
definition
mourners
tense
throne
halloween
kenneth
controlling
##tti
assigned
fluid
nonprofit
##and
##bed
authorized
fascinating
harmful
stylish
##work
certificate
curiosity
exception
indicates
bournemouth
bulger
colourful
180
invested
pays
92
##sy
granddaughter
winston
##out
database
outrageous
indonesian
counterparts
maintains
studios
inspiring
retain
##sky
colonel
courses
industries
meter
stating
##rin
finest
mild
##ek
lance
neglect
congressman
logo
##ock
skill
##bi
identifying
ap
rebuild
replacing
treasure
seeks
riots
skiing
##burg
richest
saddened
sheep
smash
tide
distinctive
serie
butter
aisle
drowned
hammond
mutual
providers
sunny
chased
portsmouth
fletcher
travis
foley
confidential
grim
operates
rspca
writers
pin
1978
mclaren
creator
sebastian
sticking
warns
quake
famed
smooth
felipe
publish
supermarkets
unlawful
thief
whales
##cing
oppose
treats
cheshire
wreck
hiring
argues
olivia
solicitor
ashamed
angle
credits
evacuation
stays
brains
cosmetic
omar
remind
drunken
embarrassment
pill
prey
gains
patch
successor
tune
vocal
cartel
reminded
divers
myanmar
depends
nationals
occurs
shall
frightened
singles
1969
crop
premium
col
lennon
congo
churches
economics
tables
stuffed
acquired
draws
routinely
£15
##vi
recruitment
fathers
guided
mode
thigh
boyle
legislative
mali
russians
##cm
##ably
sufferers
janet
laying
pressing
carnival
contrary
concerning
depressed
pump
robust
1976
gaming
males
cocktail
superb
vigil
cheating
dirt
rank
wardrobe
##vin
bacon
formerly
heaven
paulo
bra
accessible
altogether
berlusconi
maintaining
£7
capabilities
spaniard
##lay
honey
il
inflicted
monica
schoolgirl
hearings
luggage
tan
##sha
mob
successive
vogue
intervene
##ible
expressing
fortunate
chains
hop
poorly
sacrifice
cardiac
jesse
sticks
##ied
load
transparency
zuckerberg
doll
approaches
casual
handgun
beast
160
earl
instructor
oversight
zimbabwe
flesh
surfaced
barred
liz
##ct
elegant
spree
##jo
acquitted
implications
shane
subs
booking
proceeds
sheets
shook
superstar
hugh
portrayed
whereas
showers
cheryl
withdrawal
shaken
lip
storey
reviewing
bases
explosions
newtown
epic
skirt
boarded
chairs
cockpit
mourning
slave
sponsored
dishes
unity
ft
kenyan
responses
victories
withdrawn
magazines
sandra
entrepreneur
knives
limbs
shuttle
##mo
berkshire
cab
sink
mcconnell
reign
salmond
buyer
fifty
memorable
tackling
£1million
##iest
healing
hello
iceland
jacob
jihad
motivation
innovative
mia
interactive
chapel
mick
consumed
levy
trek
##yn
capt
healthier
participating
processing
curtis
brigade
exploring
unite
derek
abdul
kicks
##med
griffin
broadcasting
murderer
rumors
besides
electronics
exchanged
pockets
securing
patriots
rhetoric
fortunately
mortem
£60
evolution
jungle
motorcycle
injection
monkey
fails
maritime
12th
colombian
eden
lens
operational
barrister
emotionally
##ang
geneva
lawn
separately
voter
1963
richmond
belongings
helpful
perception
smuggling
asteroid
miranda
policing
2018
##ura
dose
enterprise
inn
logan
foreigners
marking
preparations
shotgun
worthy
##water
karzai
sadness
tasks
counties
lily
salon
tribune
frustrating
branches
diplomats
pepper
dawson
flats
inevitable
premises
wished
##op
##ris
commerce
raheem
amsterdam
humble
implement
rays
vitamin
participation
pipeline
christina
##nan
ambition
curious
hub
toyota
packages
females
madeleine
2020
1970
ditch
eldest
lounge
##lli
scans
pete
disorders
discovering
griffiths
importantly
morsy
petraeus
silk
costly
porter
blunt
disclosed
prescribed
purse
rides
utterly
carriers
financially
15th
accidental
allardyce
ambitions
beverly
burton
diary
timothy
shortage
nicola
transgender
##ld
110
cartoon
stab
bridges
critically
deported
diane
distant
examining
refer
1968
dale
bury
dental
sections
implemented
circus
cult
dhabi
exclusively
latino
raymond
uncertain
chen
lonely
robbed
2017
holocaust
slight
wrap
dems
destroying
fixing
hid
produces
particles
bt
denying
exploration
lighter
cara
##ram
##si
download
exam
independently
labelled
1974
sandwich
doping
supplied
waving
ibrahim
spine
villagers
360
avoiding
disruption
telescope
justify
##lle
assange
intend
cotton
gregory
hilton
quarterback
declaration
lords
sanctuary
brandon
mainland
permitted
mumbai
pga
sutton
wiltshire
cattle
au
imprisoned
praying
wrist
etihad
introducing
parenting
£8
deborah
resting
steenkamp
strapped
awesome
external
frankly
##po
13th
approve
hassan
tattoos
merseyside
mouse
sauce
chloe
designated
applying
rampage
artwork
credibility
disclose
gentle
##ari
magnificent
bryant
charter
martial
royals
##wick
abduction
allied
kenny
intensity
silly
hostile
##gs
##ward
ghost
knocking
cord
forbes
##ile
catastrophic
sofa
voluntary
ecuador
thankfully
contributions
cancel
dublin
dunn
halfway
listened
rifles
rupert
sang
nebraska
grid
forecasters
companion
psychologist
barriers
bent
imminent
racially
tweeting
1977
drops
narrowly
opt
altitude
luxurious
strauss
wade
administrator
breeding
headline
honestly
privilege
rope
toe
allege
bankruptcy
transparent
##board
bargain
lohan
von
confession
daddy
newton
consciousness
denial
dick
sao
credible
nail
outspoken
1972
93
sciences
suburbs
##tors
ivan
ranch
exhausted
lynch
psg
panels
confirmation
fare
patricia
##box
deployment
rod
antibiotics
chan
organisers
parkinson
riley
alison
gloucestershire
illnesses
##ical
mounting
possessing
awkward
supposedly
instructed
recruited
contractors
fabric
carlo
collaboration
embraced
##ess
layers
neighborhoods
op
gruesome
captive
mac
nanny
schumacher
steam
recruit
alexandra
bidding
expedition
frenchman
declaring
hopkins
ordering
fractured
fraser
log
predecessor
camilla
invented
##ify
convoy
gm
outskirts
##ans
collections
mails
£300
reliable
contacts
crowned
wondering
journalism
troubles
uniforms
costumes
blogger
exotic
undergone
dish
lining
preserved
scrap
ozil
blatter
donna
remorse
socialist
##lt
arnold
bust
brutally
megan
monarch
89
influenced
leap
1964
corrupt
neighbourhood
responsibilities
##ily
14th
transform
nutrition
spared
bicycle
advisory
alien
darkness
trayvon
convert
canyon
mata
processes
prospects
cooked
nevertheless
tooth
glamour
coins
guitar
mere
executions
fernandez
isle
medicare
reflection
resist
surveyed
masks
neighbouring
priorities
£25
directions
98
flowing
judged
katy
surgeries
boasted
lynn
plymouth
robots
locally
transformation
consulate
fiona
physician
thorough
mohammad
chart
compiled
idol
jihadist
injuring
cow
premature
##ded
disgraced
elder
##fe
nickname
vomiting
interstate
overdose
puerto
taiwan
1st
cowell
fearing
aiming
deportation
fits
relegation
violating
gunned
lakes
youths
##oy
acute
ahmadinejad
blessed
##tive
earliest
jubilee
arabic
confront
participated
blank
blowing
bombers
katrina
purchases
tolerance
declare
debates
flagship
hats
scattered
floral
gaddafi
heath
instruments
blasio
outer
xbox
monument
plight
zones
##ries
priced
illustrated
nico
##har
##ok
betting
firefighter
wrongly
bruises
chamberlain
fisher
submit
bundesliga
notably
pageant
scorer
attributed
sponsors
dip
guaranteed
lamb
oakland
weiner
##bn
espn
backyard
critic
sketch
capability
theories
alike
bangladesh
ios
televised
weekends
sake
wikileaks
reject
##nes
tracy
asda
feat
horizon
significance
cleaner
consultation
crops
bravery
imagined
masked
spinal
surf
container
hagel
hms
biting
notion
streaming
deleted
footballers
grocery
harbor
speeches
##zed
eyed
risky
##my
drilling
lingerie
surgical
captivity
classmates
editorial
enthusiasm
justified
##tle
amazed
deliberate
philosophy
1967
owed
escort
salmon
distressed
investments
##over
blaming
justices
urine
##gy
batteries
tunisia
unbeaten
tops
bug
mercy
##chi
1975
drill
reply
divide
dug
constructed
contributing
concentrate
requirement
lands
patent
dominant
nolan
provision
economist
overhaul
##lock
athens
bikini
encountered
typhoon
wi
favourites
investigative
rats
wow
shorter
ancelotti
devil
pr
80s
digging
fertility
regrets
specialists
substances
drank
evolved
shepherd
##ho
inform
achievements
dependent
bahrain
beatles
agrees
beth
clad
idaho
implants
locate
rigby
surrender
wasted
##gle
battalion
delicate
ellie
trainers
abandon
persistent
pie
wiped
dismissal
raced
##rie
##wn
census
indicating
skipper
bits
considers
bonuses
exchanges
screamed
##ola
measuring
submarine
disastrous
economies
genes
hezbollah
punching
tragically
algeria
91
adapt
pittsburgh
minorities
96
grabbing
joins
madonna
poppy
archaeologists
artillery
mixture
##ara
attitudes
noble
salad
fortnight
labels
stretched
buffalo
devastation
giggs
opposing
corporal
warehouse
fragile
genuinely
replica
contestants
performers
sank
brits
commanders
insects
nuts
seals
governors
marched
profession
borussia
circles
sharapova
wendy
arguably
##ston
enrique
minded
persuaded
poison
grows
cameroon
santos
thirty
undermine
##fi
commuters
expose
recordings
##ea
advise
counting
invitation
needing
script
soared
##hurst
mandate
thoroughly
1973
cyprus
kieran
elvis
kissing
novak
makeup
zara
languages
presenting
refers
##ala
honored
hertfordshire
malcolm
annually
curb
lanza
protesting
retiring
1945
airbus
bump
goodman
coventry
echoed
flexible
freely
pavement
speakers
strangled
sunset
versus
hatred
##ance
refuge
boards
components
pigs
##che
detached
gorgeous
playground
recipe
tycoon
astronaut
robson
shapes
butt
starbucks
clarkson
agony
bans
nerves
rankings
existed
##burn
bubble
cahill
identities
marcus
prohibited
separation
##od
450
applause
locks
nazis
£40
crocodile
crude
literature
supervision
couch
farming
sums
associates
busiest
impress
750
broadway
cherry
##away
abuses
graffiti
slain
stern
##net
ousted
bloom
montgomery
shannon
withdrew
eliminate
exhibit
gingrich
roadside
correctly
dolls
laughter
mice
daley
pearl
walmart
attracting
wireless
darling
gabriel
spectrum
enabled
paperwork
processed
aggression
altercation
breached
podium
sniper
calf
clearing
con
driveway
sparking
trent
icy
militia
accomplished
##ten
buzz
lebanese
mechanical
musicians
uganda
failures
unsuccessful
dynamic
enhanced
##gh
##llo
categories
convenience
lyrics
##nell
bentley
blackberry
margin
adelaide
collar
manages
stint
tonnes
belongs
booth
endless
honda
rental
luiz
offshore
flame
negotiating
##ified
crane
inherited
intentions
magical
payne
conflicts
dual
lunar
wondered
offense
sights
walters
advocacy
balanced
leaning
schemes
blade
groves
crashes
newman
burnt
imagination
provoked
denise
hated
javier
motorway
suppliers
floyd
instrument
nearest
proudly
scope
animated
assessed
seated
##he
##ye
portraits
refusal
brooke
northampton
£12
expertise
leisure
depend
prostitutes
appointments
monetary
prototype
steep
wired
ralph
soaring
jihadists
meantime
paradise
exeter
swelling
venues
mccartney
memo
prone
voiced
functions
netflix
smoked
tribe
tricky
registration
scouts
xinhua
collided
lego
sprawling
ageing
brewer
disabilities
vettel
coral
exams
planted
turf
##ments
diplomat
oak
pouring
provider
revive
£250
bianca
hardware
marina
##ph
##tar
barton
mobility
prank
whitehall
bulls
fossil
greene
habitat
hasan
upside
2million
accent
picks
bailout
baroness
descended
dragon
newark
references
bitten
debbie
muhammad
narrative
articles
chic
cubs
fashioned
naming
seeds
sharia
boycott
sunglasses
##ci
boyd
brink
glen
instances
relate
remarkably
tricks
##ud
1971
accommodate
gibbs
##ves
delaware
drogba
boundaries
sailors
alter
terrain
trillion
seekers
trap
##book
frightening
intends
polo
presentation
##ach
becky
elect
pietersen
satisfaction
bulk
plaza
pursued
##oo
angered
criteria
1million
aberdeen
cracked
experiments
hashtag
prosecute
sperm
##ked
hanged
historian
asthma
fictional
precise
whip
internationally
rounded
sweat
enduring
forming
sail
doubles
hi
meaningful
qualifier
robbie
charts
hunters
reds
##our
daisy
janeiro
middlesbrough
pedro
banker
guinness
jolie
lanes
seaside
94
straw
curriculum
guardiola
misdemeanor
tents
courtesy
ellen
lincolnshire
scratch
screams
##time
cub
##vic
1966
gilbert
humor
supervisor
surroundings
timeline
warmer
##wan
infectious
kahn
sworn
decisive
onlookers
rat
scout
shine
125
leo
malala
robben
salaries
wallet
yemeni
##hip
bout
relaxing
slashed
yelling
ballet
wolves
dairy
hardy
herrera
appetite
define
descent
ivf
jade
clips
joyce
mahmoud
matthews
mercury
unwanted
5ft
pierre
quinn
serbia
whites
objective
respiratory
reader
reunion
decides
litre
heating
regulatory
##ifying
accuse
talents
coronation
partisan
tournaments
adequate
agreeing
battlefield
plotting
smashing
##ux
proceed
utility
genocide
hormone
patience
situated
wisdom
backwards
clashed
downton
historically
nike
backdrop
heal
respondents
2nd
confined
netted
##ira
##tta
repairs
sainsbury
##ball
maternity
pains
hoffman
disappear
myers
pickup
athletics
clinics
dealers
encourages
fueled
misleading
offending
physics
horn
jealous
lowe
notable
pools
sinking
succeeded
clerk
erdogan
monitors
publisher
sting
biography
licensed
acceptance
hussain
monroe
nonsense
savage
gemma
teddy
turmoil
##let
catwalk
convincing
holders
plagued
prostate
sung
##ill
housed
charitable
humour
regain
afterward
belfast
equaliser
azuz
dreamed
footsteps
calculated
hottest
leaks
outlook
##sk
misery
capturing
sharply
bee
elevator
kills
miners
niece
##ster
honeymoon
linking
outgoing
shootout
reef
seizure
achieving
sculpture
accessories
erin
fundraiser
skeleton
carved
insult
mock
slavery
capsule
dancers
entertaining
lean
vibrant
winfrey
lesser
till
##ugh
accountability
du
protocol
solidarity
adapted
ethical
coin
luther
magnetic
##ig
##tis
bend
fetch
junk
representation
yaya
casting
disposal
exploitation
kay
shelters
terrace
blows
mackay
##lee
curry
hilarious
pale
spike
tara
administrators
counted
indigenous
islamabad
lindsey
obsession
ruby
ltd
doyle
horrifying
lin
underlying
£150
carriage
memoir
separatists
shipped
israelis
carson
##ets
blessing
dominic
monk
vodka
##ering
administered
daring
intact
compassion
elliott
ivanovic
underage
disputes
ribs
##fa
adverts
bipartisan
bowling
shelling
florence
gadget
vermont
diesel
judy
porto
rivera
shout
sword
clifford
imposing
launches
passports
surfing
disclosure
ladder
##fer
##fish
30s
miserable
6ft
detailing
invite
protester
reserves
##ser
farrell
sanford
waved
laughs
teamed
toilets
diamonds
hobby
scots
wrestling
experimental
garbage
aurora
tally
101
initiatives
magistrate
nest
proves
imperial
predator
prolific
prosthetic
spying
traces
##down
##ered
bowel
extremism
founding
occasional
romanian
thankful
dedication
joking
stationed
console
cousins
pairs
texting
fuelled
hamstring
scream
cesc
compelling
skilled
£9
interrogation
tore
colors
duell
lodged
manhunt
oval
tina
touches
##vo
1965
begged
lallana
##ory
nails
arch
artistic
austrian
halted
holidaymakers
medications
disagree
offended
pond
vacuum
97
adorable
flip
homosexuality
undoubtedly
verbal
doug
evaluation
ana
chin
delegates
goldman
newest
sprint
kremlin
observer
penis
qualities
stanford
constituency
barrel
factories
grabs
unborn
##ich
cannon
chad
wounding
charlton
mod
leaking
pensioners
refuses
bikes
consulting
tactical
##10
botched
districts
leigh
memphis
shallow
slaughter
cheers
tomb
les
scars
sentiment
##sson
rocked
##view
fog
warfare
detection
intake
outlined
trophies
damning
freak
groom
loyalty
genius
tracey
##maker
##wi
mentor
mosul
psychology
womb
##ev
##iness
cheering
liu
##dge
investing
swat
randy
safari
technically
corners
globally
spells
##logist
1960
cries
forgive
gb
scot
##sis
barracks
gentleman
leslie
picturesque
extending
inadequate
plead
serena
sickness
sponsor
enhance
##ium
##uk
1962
ajax
laurent
tamerlan
breastfeeding
checkpoint
cpr
crosses
hurting
minors
pleasant
poised
selfies
signings
westwood
crush
jewelry
kathleen
pacquiao
leonard
##ics
##mm
indoor
prophet
##oz
muller
rubio
agricultural
invisible
klein
pleas
reopened
arias
whitney
balloons
cheered
##bility
camping
provincial
staring
suitcase
swiftly
briton
arrangement
ing
cans
gloucester
lawsuits
mistress
segment
squeeze
swollen
attendant
jumps
progressive
ritual
intentionally
containers
delegation
morocco
remy
tunnels
alarming
judging
piano
voluntarily
absent
baldwin
bathrooms
des
70s
asset
demonstrates
premiership
fry
prints
bonds
campaigner
crawford
traced
ba
listing
chester
ought
overhead
printing
1930s
pulls
schoolboy
signatures
swap
trooper
begging
dana
honduras
angels
comparing
injections
behave
snacks
continental
enforce
frequency
judiciary
orientation
sexuality
zoe
cyclists
leonardo
mccann
soup
##las
heightened
homeowners
uber
maths
smallest
upheld
workout
##ez
focuses
regulators
uss
clare
shoots
starr
vince
weakness
headaches
obligation
snatched
gerard
manor
purely
snack
consuming
koeman
profound
twisted
assisting
cambodia
cartels
concealed
crater
induced
olive
pressures
batman
commenting
santorum
seizures
slice
ton
daylight
mature
shaun
##ration
horrendous
jazz
tier
vancouver
altered
contempt
interaction
lump
performer
rainfall
unfolded
autobiography
revenues
##so
90s
modified
challenger
falsely
jefferson
punish
##lar
endure
kanye
precisely
export
graduation
whatsoever
judgement
partial
resorts
threshold
weddings
agreements
prostitute
slogan
township
ignoring
minimal
mistaken
parachute
recruiting
saunders
commitments
handset
negligence
upton
koreans
predominantly
jamaica
columbus
gomez
60s
default
evident
sensible
shifts
blasts
commentator
hike
lending
dixon
lowered
occupation
enclosure
meningitis
##ac
cables
immunity
lisbon
mega
savannah
calorie
freeman
shah
vets
skinny
swimmer
dare
eagles
unrelated
##ella
##zy
canterbury
conclusions
phoned
resistant
liberties
overlooking
airspace
dewani
educate
projected
unmanned
discount
sidelines
barkley
ruins
faithful
marrying
queue
##sm
##ven
holloway
colony
cows
welcoming
##pi
burgess
chemistry
cumbria
fried
saleh
arabian
brett
chaotic
chatting
germain
settings
##ington
adventures
milestone
nairobi
recommends
rushing
transmission
peters
colleges
edited
skype
verge
medieval
scandals
sunlight
aspiring
ruin
shields
##mar
bony
connecting
dies
newport
packaging
showdown
tackled
theaters
1944
carr
disasters
fraction
##logy
abbas
rows
graduates
rains
snakes
forthcoming
intellectual
liberation
warrior
dire
kercher
rap
restraining
strikers
##day
columnist
farewell
iain
sinclair
##ette
workforce
cooling
exports
potato
alternatives
condemn
lads
outlet
dragging
efficiency
issuing
lyon
remembrance
answering
homemade
##ona
fraternity
golfer
handcuffed
ipswich
nina
noon
barrett
branson
novels
observation
stretching
mauricio
counterpart
cardinal
populated
releases
seize
damien
mugabe
satellites
volatile
disturbed
ecclestone
eleven
showcase
watts
##ative
hansen
neal
applicants
fold
switching
##ric
knot
marching
unearthed
pretending
toughest
arson
belly
cautious
glow
##ita
abraham
dioxide
micro
panama
albion
loads
partying
platforms
unusually
##lia
laundering
sovereignty
alleging
hail
valid
##zo
albeit
derbyshire
encounters
marcos
predators
slot
toni
getaway
impacts
jumper
ki
kirk
stretches
twelve
##istic
##rated
50th
finale
mechanism
willingness
##ua
chorley
controller
hygiene
kris
quote
rogue
fuller
gill
nonetheless
plug
recommendation
5m
audit
disgusted
diverted
drain
hearted
messaging
chanting
cheeky
confirming
grenade
midst
shells
wilkinson
beck
mh17
nets
restoration
##lon
analysed
lifts
rovers
topics
verify
pitt
recorder
addict
counseling
fabulous
parsons
stir
undocumented
veto
fallon
honoured
retaliation
barker
closet
mocked
raul
affiliated
gestures
lacked
rainbow
sore
threatens
carey
lacking
likelihood
neutral
reconstruction
shores
brawl
cooperate
fowler
locker
supermodel
beats
immense
rabbit
resource
silicon
clue
conclude
provocative
torch
trusts
bosnia
glorious
mafia
50s
copper
ethan
oscars
##table
candles
dispatcher
watkins
##hn
depicted
gore
jorge
medicines
southwark
succession
learnt
shakespeare
splash
##ena
clive
massage
noah
rode
servants
hack
kelley
salford
sanders
jihadi
napoli
rude
sollecito
gadgets
lifelong
thumbs
tuition
unhealthy
atomic
sweep
##nie
backgrounds
budgets
coordination
lava
loses
retained
bother
captures
eyebrows
severed
fishermen
freddie
sequence
tyson
wellington
##mp
compromised
disbelief
servicemen
trunk
drafted
dvd
expectation
hoax
leaf
responders
sectarian
unsure
combine
handcuffs
observe
piled
atop
credentials
evacuate
kilometres
transmitted
caller
interact
jfk
priests
traditions
dzhokhar
engulfed
ibrahimovic
quicker
homs
pork
prolonged
salvador
capped
gea
rhode
bailed
math
prizes
sensor
dominican
pinned
policemen
smiled
##mate
enthusiastic
grounded
poorest
recycling
soaked
strokes
##mon
alcoholic
a€
cpl
fatigue
indianapolis
nepal
buck
carer
explorer
teaches
##su
cakes
regulator
saga
sightings
suspicions
##ida
##oe
cyrus
escalated
harriet
irresponsible
marble
recruits
stats
##pp
danielle
kissed
serbian
sr
touring
##ular
fugitive
ricky
##rate
baptist
betty
collector
coordinator
creativity
marilyn
astronomers
psychiatrist
tenure
##lly
johannesburg
postponed
scholes
troop
davidson
dolphin
probable
##ved
charming
dried
enthusiasts
heir
hooked
pearce
possessions
resumed
falklands
giroud
##lyn
170
cancers
uranium
##yan
aging
bids
dutchman
jagger
ransom
3million
consequence
gavin
woodland
afp
cincinnati
eva
grades
worlds
##cal
moreno
newsnight
syrians
##lands
cheney
clooney
outcry
phelps
santiago
slaying
supplier
harrowing
stimulus
corrections
plots
appalled
declining
miley
origins
symbolic
upsetting
assembled
brace
oxfordshire
salute
abilities
allan
rbs
taped
eliminated
joey
migrant
##ther
deter
boring
eco
hyde
applies
bruno
ensured
rapist
ceremonies
inspirational
bounce
cleric
##pers
bulgaria
gaga
pint
sometime
albums
hinted
meredith
socks
unsafe
10pm
9pm
brook
michel
cleaned
filmmaker
##din
angelina
downstairs
inequality
corn
transactions
##ching
playboy
provisions
stepfather
venezuelan
##sley
gut
motorbike
poulter
schmidt
steering
bronx
dash
forehead
insurgency
peacefully
rand
sponsorship
##ada
##sey
aggressively
alberto
backpack
entrepreneurs
gifted
intoxicated
radamel
audi
authentic
badge
bruising
inaugural
bothered
burke
earnest
interrupted
rig
sacred
leveson
mummy
##min
blend
format
lydia
molly
umbrella
annie
heavyweight
nationally
suited
takeover
qualification
refund
disgrace
ma
presumably
malicious
northeastern
poyet
##els
cultures
deploy
arrange
attractions
brutality
commanding
embroiled
waking
##ui
didier
forgot
lured
offenses
suspend
tales
wyoming
##ix
dynasty
exploited
portions
ambulances
cola
nominations
occurring
awake
intimidation
lukaku
prospective
shareholders
teresa
vary
volley
dispatched
greenhouse
saddam
##ika
reversed
saves
terribly
functioning
monkeys
patron
mogul
mortality
motorist
##ology
hmrc
pneumonia
popped
seller
deposit
accompanying
cuomo
freshman
guides
townsend
##tra
additionally
incoming
protested
sovereign
subtle
accuracy
clause
upgrade
ira
issa
midwest
mo
possibilities
proclaimed
rumoured
charm
emphasis
helmand
hungary
mel
ramirez
span
thomson
##ched
addicted
caravan
deepest
gayle
influx
reconciliation
consensus
patterson
tolerate
unpopular
bercow
escaping
forests
knockout
morales
seth
territorial
awaited
considerably
honours
plunge
productive
montreal
ranger
screened
slapped
valerie
##gi
airlifted
coulson
inevitably
##ians
fiery
insulting
meth
heroic
marsh
petersburg
##ncy
axe
establishing
interpretation
contention
corporations
distinct
lengths
beans
prof
relied
ryanair
childcare
deadliest
distracted
junction
procession
rash
rico
schalke
tends
fist
paralympic
streak
mill
strategies
viable
##ica
##ologist
archive
borrowing
deteriorated
intercepted
archives
concerts
kompany
sherwood
donnell
fixtures
hers
bae
motors
nashville
paterson
potatoes
venice
##we
composed
dec
departed
petty
##gar
buenos
dominate
defiant
nod
sidewalk
abdomen
cares
diaz
iv
olivier
shifted
sickening
wed
##dle
disrupt
pablo
reflecting
stressful
accepts
caliber
destructive
enters
ofsted
packs
##bank
advertised
troubling
£400
necklace
yale
bias
darwin
mitch
panda
relying
stumbled
titanic
vest
chanel
jam
kasem
royce
frost
basket
install
tallest
40s
colored
divisions
jackets
anthem
blockbuster
adjust
affection
beam
extinction
flores
orthodox
rallies
miguel
turnout
aires
births
casualty
gossip
pew
coats
maliki
mh370
minneapolis
kindness
reiterated
competed
faulty
consists
fatalities
inauguration
oldham
pad
oath
tearful
envoy
grammy
historians
memorabilia
perpetrators
violently
brennan
fortunes
isaac
penned
slowed
vanessa
hugs
##tv
cheltenham
fridge
kidnap
remainder
warrants
doses
exposing
infants
liability
naomi
reassure
snaps
2022
clayton
landlord
##ung
cps
installation
remark
shade
solved
##pin
cunningham
downs
owe
veterinary
legislature
optimism
pier
prop
shifting
##rick
competitor
williamson
tasked
wept
attends
fabio
scales
cognitive
echo
guatemala
obstacles
dam
billed
eruption
hebdo
museums
volcanic
wielding
congratulated
deprived
jonny
sasha
submerged
beings
accounting
controllers
corridor
deaf
diets
cautioned
lace
presenters
yelled
##fied
egyptians
jockey
panicked
predictions
tin
counterterrorism
defeats
despair
profiles
rotherham
shelf
therapist
beatrice
bedside
gdp
mtv
tapes
consume
gina
rewarded
leopard
tenants
vegetable
##del
alley
decrease
inability
postal
risked
surveys
##hal
##pt
dangerously
prejudice
slaves
##ab
apartheid
cracking
curfew
greet
lemon
swearing
poles
seasonal
clutching
committees
compliance
wandering
wheeler
compatriot
hint
ideology
scrapped
sprayed
##ys
fellaini
johnston
pamela
slopes
transitional
buckinghamshire
environments
majesty
natasha
rewards
sin
spinning
##ire
framework
cambridgeshire
ours
panetta
performs
bash
biology
handbag
helpless
imaging
minus
appreciation
confiscated
detonated
harold
patel
tastes
carole
iphones
mack
spite
##ray
admissions
reactor
stalking
visibly
imported
settling
waits
##master
billboard
diplomacy
extract
rant
repeal
antics
boosted
sham
dismiss
spears
positioned
##bing
ncaa
programming
relay
##cs
111
accordance
demolished
gala
obligations
ridden
tactic
undisclosed
##eh
accomplice
breaching
grove
investor
lure
stray
suppose
##use
advises
groin
headache
weakened
##mal
##wear
integrated
arrivals
bunker
quotes
ridge
##side
hiking
hsbc
observations
squadron
##berry
##ean
##tin
litter
nicky
warriors
wary
boosting
doomed
miniature
reverend
advising
campaigned
contender
dover
technological
africans
benzema
bernabeu
disrupted
dome
employ
incentive
northwestern
erected
ginger
originated
rallied
slumped
standoff
toast
##lation
recipes
sibling
endorsed
finland
ins
shining
baffled
barrels
intruder
philippe
chefs
cowboys
fluids
southeastern
surreal
##ridge
##ual
injected
setback
webster
##art
delicious
flawed
physicians
porsche
rightly
traders
vile
ancestors
autonomous
drawings
lizzie
transfers
clippers
vanity
##ert
breathtaking
breivik
colorful
dot
huffington
humiliating
johns
labeled
sweets
thriving
baggage
hayley
interference
poignant
walton
1953
ahmad
fisherman
moody
oxlade
retrieve
##ula
appropriately
characteristics
contestant
cracks
displaying
forged
shakes
alastair
assure
atkinson
hurts
jaguar
calais
ink
kathy
prom
ronnie
secrecy
supplements
adamant
mara
stacey
worship
civic
indefinitely
pelosi
thrill
depicting
distraction
hedge
infirmary
mann
piers
unwell
carnage
congregation
latinos
spectacle
willis
fares
lad
restraint
barbie
hbo
measles
pedestrians
shirley
unveiling
wilfried
aldi
clearance
discharge
hazardous
promotional
supplying
certified
copenhagen
europeans
illicit
insufficient
quarantine
recipient
##ral
cindy
melanie
patrols
##val
grenades
tomlinson
absurd
banana
coca
gus
lgbt
marital
permits
raging
secretive
exempt
urgently
venus
##iers
1950
6million
builder
earns
ironically
lashed
punches
apollo
atmospheric
sellers
##tan
1961
gig
blankets
carrie
dump
eventual
harmed
itunes
joanne
antarctica
chronicle
painter
pirate
portfolio
servant
amir
felix
fukushima
imagery
obtaining
packing
scholarship
similarities
toes
voyage
witch
bates
buddy
exercising
relentless
roses
stocks
##kes
accusation
bankers
canberra
figured
flock
propelled
sunk
##wski
eats
ethiopia
greenwich
halls
imf
oceans
zhang
##ings
##lie
boutique
classical
navigate
visibility
##ath
##hs
##tal
coastline
gatwick
havana
hefty
scarf
tenth
vaccines
wozniacki
allergic
cardinals
contamination
den
mammals
rebuilding
reeves
##mes
avalanche
boast
##nts
contenders
drowning
forwards
cooperating
grants
harding
pretend
relies
steadily
comfortably
creations
pioneer
##ability
extradited
fraudulent
iraqis
bishops
coveted
frontier
goers
incumbent
intersection
laundry
ntsb
irvine
manufactured
takeaway
yours
##ult
pedestrian
portable
sensitivity
deila
quirky
sexist
wilderness
ingredient
owning
violate
waitrose
adjacent
hybrid
realising
bells
implant
inclusive
incomes
poole
smokers
tanzania
vip
##oni
240
8pm
enrolled
exploit
manual
practicing
respective
surfaces
bored
caretaker
dempsey
frantic
hamid
pioneering
spouse
dee
spilled
tamara
antarctic
enabling
municipal
reddit
woodward
cellphone
maj
slipping
tire
vienna
##tein
grooming
likened
norton
precaution
robotic
completion
ipcc
maiden
marion
piracy
provinces
sided
suicidal
tucked
emmanuel
hammers
rwanda
staging
cheat
governance
prosperity
wearable
barn
breaches
fairy
limitations
yang
##tions
alfred
component
conceived
courtois
forbidden
pubs
sincere
##gen
accessed
attendees
journeys
rahman
tightly
disciplined
gallagher
gallons
husbands
jackpot
kindle
kurds
makeover
milton
everest
##dra
corey
delivers
franco
haired
morsi
remotely
spiral
territories
bean
burgers
drum
nou
protestors
rigorous
slogans
##hr
allah
hamburg
stokes
throws
undertaken
exile
towel
##ened
destined
rickie
rivalry
tumor
uncommon
##ome
admired
militias
nicholson
atp
geographic
helm
ofcom
pal
attracts
entries
essence
lease
legion
maggie
ravaged
snp
sudanese
tires
topless
4million
practically
promptly
vacant
##ures
contacting
referees
cholesterol
hut
islamists
robber
aeg
bolster
calderon
calmly
feud
medicaid
stella
giffords
innings
michele
spice
tubes
##ku
accounted
failings
invention
iranians
leagues
mentality
milner
spiders
thriller
##tory
cooler
distressing
ipads
mammoth
nissan
reigning
rhodes
bruised
ceasefire
farah
flexibility
frontline
intricate
robbers
briefed
coordinated
gerry
graeme
ports
##kers
amputated
##car
##lu
##ovic
boo
negotiated
predicting
repay
ringing
sack
##rian
radioactive
stafford
watford
wiggins
conditioning
hacker
haunted
myth
sentinel
staffers
##ations
benefited
gratitude
theo
baked
denis
endorsement
output
separatist
bites
lunchtime
scar
##ches
bernie
croydon
gamble
mayfair
publicist
sped
highs
summers
##lis
behaved
bins
brakes
feeds
highways
recounted
sunrise
cheapest
colbert
courtney
eto
moses
operative
purchasing
rojo
##des
cheated
fearful
injustice
kirby
lawmaker
roland
stiff
allergy
collectors
ecstasy
outing
##bar
##ening
##ero
craze
hancock
thugs
tossed
##ott
airborne
hallway
saatchi
tabloid
viewer
gloria
ruthless
atrocities
burberry
bypass
clarence
tractor
lively
buttons
glowing
applauded
marshal
paramedic
sensational
sevilla
cement
restrict
sofia
warwickshire
adjourned
broker
contend
finishes
precedent
##ama
##een
activated
ballots
bloodshed
caucus
notoriously
raft
surrogate
testament
toby
##ord
cocktails
downloaded
effectiveness
inviting
monis
reacts
steak
strewn
ascot
dentist
gently
resemblance
subsidies
##ban
hotspur
inclusion
provisional
severity
whopping
##ain
float
mayer
akin
beneficial
commentators
expelled
proximity
roller
roosevelt
temper
gunshots
herd
millennium
sandwiches
##ru
equity
folk
gibraltar
microphone
concussion
embedded
embracing
etc
merchandise
tender
tornadoes
£80
afghans
enquiries
humane
kuala
overseeing
paddy
zurich
##cher
##ras
forrest
gays
translated
evan
knit
mistakenly
nottinghamshire
##iya
##shire
bees
harassed
heartfelt
outdoors
singled
##az
##cha
370
architects
browne
excuses
parental
paterno
playstation
polite
royalty
chanted
extravagant
greens
landmarks
manifesto
mines
sustain
##die
##ec
expired
sliding
stan
berkeley
kuwait
##bound
branding
misses
reminiscent
sacramento
settlements
stefan
stitches
unharmed
comrades
gorman
literary
melting
nash
roommate
wildly
##vis
barnett
boasting
bore
fashionable
bella
cardboard
cents
elbow
flynn
recreational
stalled
##ew
abortions
insiders
pep
slower
##bach
coke
earthquakes
gaps
guru
simmons
sloot
uae
caffeine
canvas
catholics
courageous
dundee
hay
rhino
wasting
elevated
kroos
tate
##lah
alight
colonial
poisoned
##uck
ace
circulated
diver
framed
inspections
insurers
limiting
liner
savvy
##hy
availability
bricks
bromwich
kingston
allison
authenticity
brittany
contributor
toppled
##nation
##worthy
accurately
karim
piles
progressed
vain
assuming
booming
embarked
hatch
outcomes
stronghold
structural
harley
manila
touchdown
traded
tucker
##tead
conversion
employs
humiliation
nra
pasta
remembering
rochdale
##uous
botox
casillas
conscience
trevor
##era
accuses
bake
estonia
hauled
heywood
humiliated
macdonald
payout
topping
tumours
crushing
dodge
saturn
adverse
overwhelmingly
playful
tended
unfairly
##itz
##ren
slowing
##aid
corpse
determining
enhancing
grammar
mortar
reopen
scooter
wishing
bully
skip
batsman
bogus
confirms
lenders
mart
terrier
admire
conspiring
dumping
guarded
highlighting
implementation
indications
landslide
malaria
wicket
blanc
condemnation
contested
distinguished
drummer
regards
cough
excluded
jaws
lumpur
sheen
steer
varied
worcester
confusing
prevents
thrust
##wing
graduating
socially
solitary
spat
##gb
##nic
##oa
arlington
esteem
spies
twickenham
legislators
##ence
##van
affluent
apologies
hugging
limb
litigation
upmarket
workshop
frances
impaired
marrow
stall
suites
flashing
mi5
surrendered
volunteered
25th
kristina
rochester
simultaneously
##rey
drastic
offs
blades
disagreed
pulse
resemble
brent
enforced
inspect
acknowledges
anytime
appreciated
avoidance
backstage
barber
diners
dominance
mls
needle
samaritans
unstable
##0s
##oon
chilean
hamza
hicks
onboard
ontario
usage
yanukovych
##ata
##rating
unpleasant
concentrated
fairness
fruits
hugged
lightly
pause
productions
trails
deserted
founders
pumping
##len
bullies
cesar
defeating
expectancy
grasp
mama
woolwich
froch
unconstitutional
vows
impacted
maya
puppies
##aries
1959
3rd
midterm
precautions
stigma
##ifies
4g
buddhist
overlooked
pumps
touchline
touted
100m
bachelor
elliot
emmy
swinging
arresting
bachmann
despicable
nusra
woes
annoyed
counselling
enlisted
plummeted
statute
deliveries
designing
flipped
indians
norm
paralysed
shortages
callum
codes
flare
hartley
tarmac
##ale
##mouth
daniels
dense
forty
measurements
neglected
studded
1914
aspirations
demonstrating
handwritten
lazy
boulder
homosexual
joanna
lima
protects
##gg
##light
resisted
scrambled
sept
zombie
##ship
anticipation
darker
privileged
supervised
suzanne
frontman
popping
themes
tribes
8million
bounced
juarez
sociedad
synthetic
7million
gasoline
merit
painkillers
patriotic
ratio
sears
texted
walcott
##fully
hydrogen
plaintiffs
slap
vigilant
warsaw
defining
encouragement
falcon
kisses
plains
sakho
spurred
wasps
congratulations
hayden
howe
noises
poet
rudd
sands
sotomayor
unpredictable
academics
epstein
homework
mcdonnell
technician
##borough
##win
100th
chill
choked
frail
geoff
handler
rookie
ain
continually
instability
marshals
meteorologist
mixing
slope
unlucky
£2million
amassed
avon
borrowed
freedoms
jurisdiction
mcdermott
outpouring
questionable
sailor
##ction
flagged
generating
lasts
rita
trim
##news
centered
paths
publishers
sneak
tailored
wonders
baines
crafted
legends
1920s
3pm
dani
organizing
reasonably
supplement
webber
bowler
fallout
fractures
licenses
pipes
##mont
##via
constituents
damon
doncaster
flanked
jordanian
tel
weir
30th
salvage
##hole
##ora
erik
headteacher
nasri
overly
propose
recalling
scent
stereotypes
##ges
alps
evaluate
greig
pulis
sharpton
visas
10am
collapsing
discarded
domain
luton
senegal
steroids
wills
donovan
intensified
swimmers
£35
##stic
coupled
jerome
swapped
tub
£11
##ees
##ses
advancing
crawl
hospitality
marketplace
skyline
##woman
continuous
jacobs
mancini
mormon
paired
toured
traffickers
##oid
beautifully
cluster
dreadful
frenzy
ss
thrive
animation
grisly
msnbc
craigslist
eugenie
hijacked
personalities
predicts
sami
##kov
arraignment
cain
chunk
garnered
prosecutions
wickets
coincidence
convict
hastings
lid
##ison
crisps
exterior
lloyds
sighting
spate
surround
bloc
christianity
fool
forgiveness
mickey
paralyzed
recreation
romero
tomas
unspecified
##anna
##horn
communicating
gastric
marquez
neat
sinai
summoned
arthritis
cart
contentious
kazakhstan
koch
positively
stockholm
towed
commands
formidable
responds
towering
ariel
##ification
choking
icc
mathieu
mirrors
utter
yorkers
##ack
##hu
##ws
650
bahamas
baking
correctional
emailed
gupta
halftime
shrine
4th
barlow
catering
directing
outbreaks
patches
stretcher
##lor
distribute
doorstep
inundated
preacher
scenarios
blames
geological
jeffs
marvel
spreads
brake
drake
drills
faculty
honors
meltdown
pharmacy
posh
pour
##list
##non
binge
curved
delevingne
notices
sinister
summary
cliffs
ipod
recipients
forecasts
mccormack
peanut
inflammation
insane
luxembourg
prompt
reduces
thefts
varying
260
editors
meteor
promoter
qualifications
regulate
solving
stained
attendants
demolition
inserted
intervened
jupiter
##lets
115
gale
pepe
trader
wipe
##hard
auckland
medically
minerals
stamps
accountant
await
dinosaurs
dispatch
fragments
glacier
holt
stellar
catalogue
cathy
creators
dinosaur
escalating
extends
parallel
phenomenal
pickles
urgency
##ere
##rus
crowley
ivy
tee
##brook
biscuits
builds
consulted
crouch
forgiven
hemisphere
madness
ons
quantities
requesting
soda
wartime
yates
##con
betrayed
flick
fulfill
hampton
interviewing
seahawks
styled
##tha
instinct
kitty
mesut
rejection
riverside
sparks
spotting
staten
avid
diameter
fingerprints
fleming
hare
harvest
denounced
furthermore
guarantees
kitten
scaled
tattooed
brass
carrick
cites
connects
creepy
energetic
initiated
integral
livestock
squeezed
thumb
unexpectedly
burglar
caylee
favoured
filter
hospice
moms
nichols
outright
pencil
petit
pierce
pillow
remanded
semifinal
tipping
£600
##feld
220
crunch
mums
nigella
skirts
stephens
##kar
6pm
assists
casket
georgian
liable
maradona
matic
resisting
ho
millie
grams
grieve
insulin
mapping
motel
reminds
##nis
hormones
symbols
1939
777
podolski
##lton
downed
foam
goodwill
pine
satisfy
semitic
slimming
thierry
wool
carlton
kerr
leighton
lobbying
princes
proceeded
selfish
shadows
tow
##bin
##eed
##tro
bass
garry
goodison
o2
alistair
amounted
awe
carers
demise
fracking
insect
lacks
milwaukee
tibetan
##atic
##illa
edged
glance
grain
invasive
kyi
surfers
sympathetic
##ple
commemorate
disguise
melt
pundit
rouhani
skeptical
acclaimed
excellence
horrors
penguin
1940s
accessory
alerts
assurances
catastrophe
feathers
feminine
inspected
interfere
##long
7th
bakery
coached
fascinated
password
protections
renewable
rhythm
scarred
trierweiler
##old
canine
courier
defied
speculated
theirs
amazingly
assistants
havoc
wishers
condemning
conrad
hogan
kirsty
palestine
prague
viruses
successes
willie
rooted
strategist
stroll
upwards
##nal
geoffrey
##ei
##lam
##lated
##uri
frankie
nokia
1000
abe
bleak
duration
lerner
looming
pivotal
skating
##ene
hurled
pdf
rossi
yankees
##dell
boulevard
strained
wholly
auctioned
frames
indoors
median
pumped
swan
whipped
restoring
trendy
##ima
abandoning
gerald
handles
irene
joints
sitcom
suu
thornton
yuan
##sville
argentinian
ashore
gamers
improper
injunction
lend
presumed
singers
brightly
broadband
clarify
harmless
honorary
kobane
smuggled
thrilling
tucson
exceptionally
freelance
midday
paramount
toned
verified
wheat
fork
hewitt
lama
lou
torso
##cies
cerebral
claudia
deception
lipstick
nile
playmaker
ramsay
wal
##dis
anonymously
barrow
bmi
restrained
tiffany
veil
batch
comparisons
embattled
handsome
kurt
passers
pathway
straightforward
wrecked
##itt
5pm
curve
finn
gases
impending
integration
wearer
##late
chick
feast
invaded
keyboard
pitched
revival
speculate
accompany
beheading
deposits
gruelling
hd
raqqa
revised
swallowed
bats
entertainer
favorites
grill
lineker
malaga
objected
standings
stun
tapped
tolerated
unavailable
##tch
borrow
enables
entertain
lille
pushes
robberies
sculptures
##cent
##ius
##wen
distances
heavier
http
inaccurate
seriousness
swine
##und
conflicting
swear
##osa
coastguard
commuter
pathologist
vat
6am
butcher
consensual
kendall
secular
gillard
ramp
##dan
##hart
##nda
cech
climbers
diminished
merchant
quizzed
han
preference
sachs
senseless
veronica
##fire
balancing
banners
prized
sheila
discomfort
drugged
kristen
neo
slash
swam
thunder
trailing
wig
auschwitz
closures
contraception
dorothy
hillsborough
massey
respectful
rift
taser
1940
abdominal
abnormal
enthusiast
eyewitness
flows
implicated
maxwell
midway
prediction
ranges
truce
tying
unresponsive
wagner
##ito
##mel
aided
amelia
archaeological
cory
destiny
gutted
harlem
terrific
vietnamese
watering
##ils
aa
heaviest
lara
pa
receipt
strait
wholesale
##vey
5s
chickens
emperor
expressions
herbert
kits
mueller
poker
reactors
bombed
comparable
filthy
razor
recreate
11pm
armoured
belts
brit
galaxies
zip
##tel
230
adebolajo
adidas
broadly
decorations
mickelson
##air
5th
aviv
daytime
heidi
regained
tearing
upright
warnock
##bert
##enberg
##vable
crippling
curtain
neuer
oven
overthrow
ram
##hl
##room
confinement
import
iss
norris
snowfall
substantially
caves
extortion
fiorentina
madoff
mri
##bra
bedford
bulgarian
carolyn
cody
haitian
lightweight
offspring
slovenia
stripes
##ias
builders
carpenter
keepers
sherman
berahino
extinct
hunted
manned
maureen
outburst
richie
stadiums
weights
7pm
admiral
apprehended
patrons
portray
stylist
wildfire
defect
faded
potent
prefers
4pm
adaptation
advisor
homophobic
mug
packet
praising
python
reservoir
rouge
superman
translation
##nk
105
adopting
nov
profiling
relieve
unicef
whistleblower
angrily
benfica
bumper
northumberland
sci
choir
consultants
finalists
hungarian
knights
malik
mascot
occupants
proposition
##urs
dinners
mcqueen
translate
alpine
cruises
greeting
navigation
peoples
perkins
readily
circulation
claude
closes
contracting
emphasized
oz
passwords
rebekah
apprentice
factions
francesca
hangs
malia
nominees
operatives
rampant
socialite
1957
chiellini
classed
feminist
morale
alves
listeners
staircase
##bling
coping
curator
currents
justification
objections
researching
semifinals
##iah
##sie
acquire
beforehand
cervical
chatted
compounds
embassies
liberals
pals
plunging
precision
seafood
bounty
camouflage
circled
donating
downturn
hawkins
laptops
nausea
rosa
schultz
vale
##yer
beheaded
catalan
jacqueline
manson
pow
reservations
sectors
bobbi
harrington
incorrect
jared
marriott
princeton
qantas
servers
##lk
dyke
kickstarter
retrial
wolverhampton
##lings
##uer
compassionate
lecturer
pretoria
vivid
chandler
informant
masses
owens
prayed
rabbi
schoolchildren
turtle
##vy
##zz
depths
gorilla
meyer
owes
pricing
scholars
slaughtered
tomato
wrongful
##bon
##ico
cricketer
distinction
g20
reeva
1948
charred
cloth
dazzling
mit
ortega
portrayal
troy
economically
exceeded
foundations
jenson
kidneys
sophia
swallow
vertical
5billion
acknowledging
browser
cummings
generosity
insurgent
machinery
penguins
tendency
##hall
##ulation
individually
nut
pony
premeditated
radiotherapy
regulated
runoff
autistic
benitez
captors
conceal
concludes
concordia
cookies
horns
hurdle
pact
poorer
shutting
smugglers
watchers
adoptive
chilly
functional
fundamentally
jenna
quantity
sidelined
deen
discretion
frein
implementing
inflammatory
loop
narcotics
undertake
urges
##watch
badger
disrespectful
gwyneth
instruction
nightmares
professionally
woken
##end
jasmine
polio
slick
abdel
burma
chats
intercourse
leah
leicestershire
naive
resembles
##wyn
##yard
ramadan
weston
allegiance
baton
debated
dzeko
edges
gum
happiest
lorraine
shea
tomatoes
175
awlaki
bravo
bugs
commute
jeep
jellyfish
laps
oslo
partnerships
penthouse
receiver
rey
southwestern
void
##stone
clan
cornell
damian
disorderly
illustration
printer
revoked
societies
timely
downhill
educators
fiercely
forefront
hampered
insensitive
isil
loudly
paranoid
##pen
amusement
artery
disappearing
wealthiest
##oli
axed
brighter
garment
goodwin
input
letterman
midwife
rowe
scathing
unwilling
adventurous
cassidy
hazing
opting
promotes
vans
villas
youthful
acquisition
bladder
hindu
tevez
turtles
bathtub
combining
inhabitants
intentional
moran
poetry
repeating
shawn
##ith
##tree
##unt
1955
copeland
kilograms
mcafee
monarchy
pardon
polled
snapchat
tainted
adrift
barrage
lacey
ortiz
shameful
titan
unlimited
##dar
admiration
beirut
disqualified
melted
yield
addicts
buys
cam
camden
circular
clarity
depart
guzman
peta
specify
unleashed
##ulating
anguish
camel
quitting
##cia
##rst
armored
bookings
confronting
disgraceful
enacted
farther
fringe
heel
maternal
persecution
possess
startling
thorpe
traits
worcestershire
##12
000ft
arraigned
backup
condoms
espionage
outs
oversee
racked
saracens
undermined
adolf
bankrupt
mogadishu
organising
reproductive
slated
understandably
vernon
vine
wines
##ib
bracelet
britney
cordoned
mullen
stemming
##ag
##rrell
cazorla
disc
envelope
filters
interactions
ouster
pharmaceutical
risking
scrum
transporting
untrue
whelan
blogs
harness
intriguing
isabella
##cock
bc
cannes
informal
moreover
oversees
parry
preview
scarlett
##aki
##eck
##gie
1941
1958
exceed
hosni
intimidating
inventor
jakarta
motives
shiny
strengthening
twilight
unveil
##cc
1942
assignment
ballon
dons
obstacle
philippine
presley
sharif
translates
usher
##ao
aerospace
assertion
characterized
fibre
halifax
jeopardy
malta
execute
fifteen
mocking
ropes
stare
traveller
£16
colchester
demographic
depicts
emulate
hu
ibiza
loftus
persian
tyres
##igan
bloodied
elaine
floss
handsets
wires
£14
##cat
fond
poem
revellers
smalling
sparkling
uproar
##sia
##zation
45pm
certainty
combines
consular
countess
ct
deteriorating
shaved
##lies
lovren
tackles
upbringing
##cast
attire
beers
icons
staple
##dor
##gal
clearer
donned
jodie
noel
ricardo
ruler
wawrinka
##phone
##rich
cookie
crow
danced
escalation
grievous
kepler
martian
mattress
rebellion
splitting
weaker
787
sanctioned
sleek
toxicology
appoint
mckenzie
reyes
sq
tibet
baron
canary
copa
nowadays
porch
soar
depot
facilitate
giles
goalscorer
varieties
woody
##cca
##link
bombarded
documentation
gascoigne
hilary
improvised
plaque
soho
warmth
##bc
##cted
disregard
eased
fountain
imports
needles
piper
kathryn
sailed
bred
essay
gutierrez
incentives
morton
solicitors
spelling
##14
alpha
boundary
ceremonial
departing
girlfriends
handy
herman
ravens
£13
impoverished
infrared
licensing
lifeboat
starved
benson
cheeks
cosmetics
mechanic
thanking
heartbeat
leapt
philpott
renting
develops
helmets
logic
qatada
speedy
upgraded
##bu
135
assessing
ballistic
illusion
raiders
rapes
tumble
vauxhall
##war
9am
dickson
flavour
mastermind
organize
palsy
sequel
slides
stacked
wards
£70
##bel
##lit
##logical
##point
##tter
barking
eccentric
galleries
hairdresser
musk
vandalism
bushes
hans
honesty
marseille
overturn
sober
worsened
##15
emerges
explode
farrow
involuntary
normandy
pauline
wesley
lately
miscarriage
pregnancies
schettino
surfer
ambush
charleston
desirable
proposing
replicate
shouts
terminated
bespoke
composition
ideological
marker
seating
tahrir
tlc
ak
alvarez
echoes
interpol
jacksonville
methane
negligent
pam
spectator
trainee
wooded
associations
bacterial
convenient
ibrox
khalid
legitimacy
leno
niger
pollard
walt
##ress
brushed
businessmen
greed
hawk
lorenzo
revolt
8am
ailing
barbecue
circulating
damn
foxes
futuristic
musharraf
planting
slater
##hin
##mas
augusta
butterfly
dissent
dyer
molested
accomplish
compares
contagious
kumar
mcbride
paws
rested
sebelius
stack
triggering
vaccination
vikings
festivities
frankfurt
irwin
lebron
registry
replies
##ese
##nn
bystanders
nuisance
oswald
runaway
unanimously
unexplained
litres
punk
sincerely
splashed
abramovich
classrooms
competent
cowboy
peterborough
##aby
##ition
##mine
aka
correspondence
disturbance
fsa
hooded
instrumental
maid
topshop
##nia
bbc1
devils
explored
fossils
frog
messy
pornographic
strains
##ade
##boro
fatty
leveled
seniors
streams
thinner
##if
alarmed
annoying
assassinated
calum
compelled
exploits
heartbreak
mosques
wrapping
catches
flurry
likewise
mint
pretended
residency
##haw
##oma
congratulate
decreased
favored
fuels
genre
inheritance
offerings
transplants
##inger
bolivia
bungalow
goat
goodell
griffith
smuggle
squirrel
accessing
compulsory
debuted
floated
irony
levi
pudding
realizing
rebuilt
rugged
1947
authorization
covert
em
puzzle
renew
##gin
##sse
airplanes
definitive
vidal
##eau
##key
festivals
gillian
goldberg
lapse
whisky
##cus
2am
banging
dye
queues
superhero
##rio
meyers
rife
apples
brunt
checkpoints
classmate
draped
glossy
infantry
unofficial
##af
##ware
discoveries
homeowner
mortgages
reinstated
tempted
welch
analyse
banksy
concede
elle
glittering
hq
lowering
packets
perfume
productivity
verizon
##jan
duggan
kimberly
lavrov
starving
strengthened
trans
turbulent
cynthia
daunting
disneyland
ecb
financing
highlands
nap
victorious
##the
alfie
censorship
elena
elusive
emergence
frantically
jenner
notify
railroad
wheeled
cosmic
gel
mcdaniel
pressured
scanning
siberia
transaction
verdicts
##erman
103
disgust
estates
pogba
prohibition
##rum
aliens
booker
enraged
guitarist
informing
londoners
looting
mashable
moor
neon
reconnaissance
unsurprisingly
harassing
lookout
orbiting
unesco
##fication
abundance
announces
behaving
besiktas
empathy
englishman
lazio
unanswered
unlock
##baum
ensemble
footed
giorgio
intimidated
jacques
namely
tapping
vicky
##ado
##ali
accustomed
airliner
desired
huddersfield
lamborghini
lukas
nationality
twenties
vonn
##craft
550
conferences
holden
methamphetamine
pumpkin
spacex
aimee
bucks
clint
eerie
fitzgerald
hips
moammar
peaks
renaissance
schurrle
##kins
auctions
carlisle
comics
editing
murderers
peruvian
reductions
sour
trench
alvaro
beams
bluetooth
extensively
ignited
lawful
literacy
outdated
playoff
swipe
warwick
accordingly
blunder
chartered
comforted
seaworld
vulnerability
windy
40th
crisp
nemanja
notoriety
thoughtful
##boat
##top
booze
clinging
greenpeace
lecture
mayo
mourn
organise
sect
seymour
turbines
computing
erica
lashes
obliged
poroshenko
staples
stratford
traumatised
weed
awaits
cellar
drinkers
inadvertently
massa
patrolling
pops
thread
vitamins
gangster
juror
nikki
swindon
xavi
##hed
##lman
arc
berdych
cameraman
cured
ego
spitzer
useless
villain
1954
adebayor
airing
anwar
fracture
grayling
iceberg
liquor
pinpoint
wrists
xvi
candle
continuously
dismal
fairfax
leverkusen
nutrients
photographing
sticky
tumblr
##bird
##dal
11am
budapest
fingerprint
garrett
gauge
rainforest
stoppage
unified
##ip
earrings
ferocious
higgins
littered
miriam
neurological
ribbon
rim
shrinking
stems
unfold
##rton
debit
footwear
inconsistent
milky
nationalist
resilience
roth
##ati
##of
3am
assumption
evolving
gchq
maduro
netting
unsuccessfully
##zan
cuisine
dalai
distributing
endurance
erotic
eugene
fuss
ireporter
jobless
jude
orphanage
outline
pots
tanker
unfit
utmost
##lic
calvin
clown
entourage
hispanics
mighty
pundits
sufferer
transforming
##heim
##ique
accelerated
assessments
binding
eclipse
jeb
pilgrims
##fy
##rier
anders
basin
bouchard
brightest
gardening
genitals
lapd
oct
problematic
sorrow
1952
adjusted
bilateral
bisexual
funerals
gallon
sergey
sotheby
stepmother
termination
adequately
broadcasters
bubbles
carla
landscapes
medina
nutritional
nyc
renovation
warrington
190
burnham
curse
doha
galatasaray
millionaires
outreach
sounding
timed
£120
airstrike
allergies
claimants
defamation
fries
grilled
reacting
tb
trinity
boiling
chooses
enrollment
jazeera
morrisons
nye
scenery
shia
squads
undertaking
uphold
walkers
antique
dorm
easing
recycled
remnants
rooftop
suicides
sweetheart
blizzard
dealings
hostel
muddy
spanning
travolta
wu
##shi
##una
anton
hospitalised
thermal
vi
zlatan
bald
clutch
dmitry
genetically
jewels
mikel
mountainous
processor
specifics
winding
witnessing
advertisement
cancellation
employing
flares
groomed
platinum
raged
stiviano
##fall
##mie
##owski
asteroids
bubbly
cartoons
flocked
fm
foremost
fulfilling
majors
mineral
relegated
rhys
troopers
tyre
upbeat
bless
heinous
rallying
shopper
thrones
wolfsburg
£18
270
flung
grips
harming
lesley
medvedev
monty
offside
protocols
sausage
snowy
statues
##ullah
algerian
amish
caesarean
doherty
foolish
imam
obscene
patriot
rodman
stamped
##elle
grassroots
interpreted
italians
lax
rendition
wight
withstand
##aw
##ela
##ken
adrenaline
derived
detector
scientology
spur
sultan
7am
greets
lewd
lobster
optical
sagna
shamed
skier
aussie
casually
forster
inconvenience
mcgregor
sacrifices
safeguard
sodium
£3million
cafes
delete
logistics
secluded
uruguayan
wakefield
##rell
##tto
##vers
anticipate
frederick
unsuspecting
##ological
carmen
compensate
cressida
noisy
pup
rejecting
systematic
##cious
##ows
corpses
hence
hln
insults
pique
rodger
##iled
architectural
bribery
discriminatory
economists
evra
misuse
modi
rowling
unauthorized
willian
9th
hardship
molecules
swell
trustees
##grove
##lier
chorus
feinstein
shropshire
vera
volumes
yo
4am
betrayal
courtyard
defiance
greenland
hawking
karachi
plague
##iro
freezer
helena
messenger
noticing
opposes
slump
##hood
daly
dehydration
desperation
ducks
gotta
hale
picnic
prominence
slate
usb
##bee
collectively
cycles
dui
finalist
glove
indict
midwives
phrases
pod
rodney
verbally
waitress
bodyguard
bouncing
busted
cantor
emblazoned
maguire
mugshot
photographic
sonia
##fold
andreas
bosnian
cabins
chung
dwarf
gmt
nintendo
##00
bart
cosy
disagreement
divisive
dumb
lauer
lotus
manufacture
payday
quo
wraps
cobb
epa
forge
hurry
oversaw
##xi
alicia
baghdadi
bashir
colder
converting
ditched
isaf
occurrence
profitable
roast
sixties
culinary
dude
electorate
evasion
readings
spouses
susceptible
understandable
vein
##los
##wall
1956
aquarium
barge
clot
cramped
embargo
er
jen
jessie
marketed
practiced
sepp
##mins
accord
obstruction
perched
tragedies
viktor
##ern
arjen
chopped
claus
debilitating
delaying
edwin
jamaican
mouths
nascar
rockefeller
sanaa
##du
##une
bales
coutinho
engagements
yorker
aiding
bilbao
hodge
negotiation
thunderstorms
torrential
tuned
##mond
fulton
labrador
pac
possessed
scolari
sliced
zaha
##tas
beacon
crescent
lockdown
ranged
stride
tyne
adele
landings
meadows
retro
slender
automated
cynical
huhne
justine
marino
revered
##20
##mbe
dea
evade
evenings
exaggerated
gunpoint
hawaiian
reinforced
tvs
##stein
adm
alright
quiz
rests
sorted
sugary
surplus
tasty
##life
##rg
##ried
jar
rowing
terminally
1943
artifacts
deterrent
fearless
harrods
ignorance
rewarding
traveler
6th
airfield
defences
diy
nightly
placement
scholar
sweeney
tyneside
##ex
callous
devised
idiot
massively
waterloo
##roy
##tation
curled
hollow
ineffective
louisville
ovarian
striped
velvet
volkswagen
bhutto
denim
mccoist
mosquito
rudy
spontaneous
upscale
##nas
adorned
arrogant
headphones
inflated
irrelevant
marr
miraculously
onset
arrow
gao
influences
oncoming
overs
sketches
##uting
crises
monte
pins
sewage
siberian
wikipedia
##mu
1918
congestion
enrichment
generals
kilometer
plotted
quebec
sikh
surprises
wildfires
£10million
##nik
broadwell
criticizing
doubling
exploiting
overtime
trending
unmarked
angles
batting
beaming
bitcoin
brides
chants
concessions
haunt
laurie
onion
sanitation
songwriter
subscribers
tonne
borne
debra
flaws
innes
lent
overheard
reassured
vaz
wicked
crumbling
custodial
faux
legged
meghan
resilient
separating
smells
spun
superstorm
wandered
##ancy
compact
dreamliner
faint
honolulu
inflatable
mat
muscular
renamed
repaired
##idge
blackmail
density
epilepsy
flattering
harman
leanne
observing
prohibits
reclaim
stripping
tanning
tick
##rose
consult
groundbreaking
info
northamptonshire
preservation
sharma
tia
##piece
##sman
##ub
backers
californian
gowns
pena
radcliffe
reconsider
vigorously
##iel
bedfordshire
directive
dustin
eleanor
ethiopian
roaming
scanner
ai
alejandro
cardiovascular
crammed
knowles
markings
mcmahon
prescott
statutory
tinder
wellbeing
102
battersea
clergy
dane
dusty
filipino
francesco
liar
mertesacker
profoundly
quarterfinals
ruiz
scouting
stricter
withdrawing
##mark
##pot
bipolar
cereal
darfur
dolan
evolve
mk
snapping
actresses
caliphate
decker
gcse
gusts
headset
interval
perks
rendered
smear
unanimous
##dad
bleed
huntington
inciting
jointly
peshmerga
qatari
relocated
stunts
##olo
104
americas
atm
bunny
criticise
endangering
khamenei
perimeter
restart
slid
unprovoked
##eer
##making
aggregate
charismatic
coaster
counterfeit
extraordinarily
freestyle
heiress
prescriptions
waugh
amp
drastically
ella
joachim
labs
pies
satirical
scalp
thug
##ture
bursting
contingent
drip
judith
lays
longstanding
nova
perceptions
rex
ripping
rosemary
toddlers
volleyball
##hon
##liest
consolation
folded
lifeless
merry
midweek
parenthood
plaintiff
subscribe
abigail
classics
dickens
duped
emergencies
g4s
kai
naughty
sheridan
strips
sylvia
anchorage
consortium
counselor
disruptive
edgar
edmonds
eviction
ioc
marouane
ovation
##eri
##iz
accelerate
brenda
connolly
councillors
eliminating
perished
progression
shelly
shrink
winters
£800
##fc
##izes
culprit
defoe
dejected
dent
dragons
dull
illustrious
orion
propofol
ptsd
slovakia
sportsman
##rkin
announcements
attributes
buttocks
logged
primaries
reeling
sleeve
snyder
steele
##ders
anelka
bastion
careless
contests
forensics
rees
sacking
securities
constructive
distract
grande
ironic
monks
regimes
tighten
timber
turnbull
villarreal
bergen
cooperative
dashed
idyllic
keegan
maynard
paces
paltrow
paralysis
professionalism
rubbing
shave
tissues
##eon
##kowski
arose
randomly
reindeer
##tie
arranging
defying
distinguish
eagerly
goodness
granting
laced
loading
revived
selective
taller
tampering
upload
warship
zach
##aro
auburn
guiding
holed
kylie
mend
modeling
oasis
sukumaran
szczesny
£75
##dos
##ites
andres
beverage
candid
hs2
rusty
tanya
tighter
vargas
anita
armour
cane
couture
haunting
hmp
internally
mclaughlin
orchestrated
pristine
spirited
tags
tiles
vastly
##eth
##ops
angus
boiled
elton
hanson
jennings
poaching
rabbits
reliant
sufficiently
trolley
vinci
##ates
aesthetic
britannia
dietary
handbags
locking
paedophiles
panorama
robyn
ultrasound
alec
bio
carriageway
cleaners
dads
disperse
hikes
iniesta
misunderstanding
zuma
bets
byron
geography
psychologists
##cks
##com
##ient
##row
##uring
advantages
burglars
filmmakers
selecting
testifying
weinstein
##illo
appliances
becker
cupboard
demons
disguised
documenting
haircut
magnate
morally
peshawar
scuffle
vague
##mia
##yo
afforded
brewing
bros
byrne
cho
claw
concepts
hurdles
methodist
sleeves
stimulate
##ros
absorb
aligned
brunette
chevrolet
glitter
glue
gripped
renovated
riddled
##berger
##rp
flanagan
hutton
liaison
mats
panoramic
perfection
prevalent
provoke
transferring
davey
devout
ha
parody
rub
samir
shin
tuna
winchester
##rant
23rd
footing
marcelo
prematurely
stash
surged
##uz
amusing
authorised
concentrating
consistency
dessert
eastwood
fulfilled
grader
humidity
marred
newt
ravi
treasurer
##itis
collects
dynamics
entertained
fronts
lingering
mimic
overshadowed
sexism
##igh
##rine
billionaires
candidacy
gospel
monuments
pandas
stirred
unchanged
violates
##orn
arise
cecil
crippled
downward
inland
interface
jayden
knowingly
omaha
ounce
routh
sas
ticking
tostee
##weight
280
antiques
bursts
cheque
dictatorship
emory
gardener
h1n1
lifestyles
molestation
spacious
timetable
##ises
##tham
15pm
barbaric
belarus
bravely
broncos
colon
conceding
convey
criticising
discounts
easyjet
endangerment
iq
powerless
randall
sleeps
taxis
warden
##cker
##gue
##hardt
##ht
ava
celsius
confidentiality
countdown
doe
downfall
emanuel
ernest
expire
jarvis
petra
shaping
sobbing
sported
unnoticed
ecstatic
refrain
resolutions
siri
##40
##gers
##mit
coconut
deeds
deflected
heist
marin
objectives
promotions
server
sobbed
£45
##law
absorbed
airs
bustling
crawling
cska
duffy
dvds
hype
ligament
mold
overseen
reptile
sprung
variations
wong
##post
adhd
construct
fascination
favorable
manipulated
mi6
pham
pricey
robbing
shareholder
sox
treacherous
##zen
abide
govern
installing
mentions
traps
vampire
waterfront
##tones
abruptly
diagnose
punishments
roar
swung
volunteering
wta
##lby
beatings
cooke
entitlement
fusion
moroccan
orchestra
proportions
rosetta
slayings
someday
unlawfully
width
##ille
##kie
##load
##mba
bathing
clinch
exhibited
flint
forecaster
gu
insanity
mitigation
shrapnel
tasting
##dine
##front
benz
cleanup
expires
goldsmith
mae
mignolet
noticeable
sergei
terraced
alexandria
bono
bowls
brazen
bulletin
exclusion
offset
renault
stocked
stormy
##gler
##try
basics
chewing
dreaming
ligue
masterpiece
pontiff
publications
850
governmental
paints
strings
##band
##rra
alligator
analyzed
anni
coincide
commercials
det
dominique
ensued
escalate
hackney
isla
jurgen
reminding
saad
sim
simeone
stacy
unbearable
valle
##bell
##croft
##iser
bloggers
bridget
cruising
cuddle
fanatics
goalless
gregg
margins
romeo
scooped
shoved
showcased
stemmed
##rium
1936
basle
fulfil
pints
slamming
sushi
##gon
5am
bayer
diaries
eduardo
froome
hints
reliance
sinkhole
staffer
texture
trott
##rl
freight
hostility
maloney
parcel
persona
uniformed
unused
windscreen
##tine
##usa
##zel
curtains
medic
necessity
pitches
rulings
tulsa
##sco
conjunction
improves
irishman
mindset
pelvis
phd
surpassed
turnaround
vendors
##fo
112
banter
bermuda
brilliantly
bumps
chateau
evaluated
extensions
fences
huntsman
leary
mandy
middlesex
navas
pele
sleepy
sweater
tammy
viii
##had
##heads
lynne
overjoyed
putt
retrieved
skeletons
substitutes
surrounds
##ace
##nor
aloft
gateway
honoring
lenses
levine
quoting
romelu
skrtel
succumbed
tirelessly
##lum
##oc
belle
bowe
charlene
kfc
manny
mcdowell
payroll
prigg
skinner
stockport
stringent
vieira
##ake
bonnie
chang
curves
embryos
endeavour
mauled
regretted
reservation
scramble
skyscraper
##atory
allocated
castillo
consoles
dilemma
hanna
keynes
newer
plush
##anne
##can
2pm
beginnings
blond
croatian
crocodiles
homecoming
kidnappers
motoring
safest
tummy
##beck
##dling
##ob
8th
decay
dunham
inappropriately
josie
mammal
midfielders
nathaniel
perverting
sprinter
towels
##ann
cages
ejected
galactic
naples
nautical
recognizes
saturated
sol
sucked
treasures
usain
##30
##aa
##je
bumped
freeway
henning
pity
replay
stonehenge
thighs
tudor
##are
##nier
##nte
constitute
erratic
farmhouse
fathered
motto
napolitano
wax
yosemite
asserted
bordeaux
bowie
forums
gymnastics
monsters
reinforce
relates
schwartz
sourced
sympathies
##ep
##itude
##ometer
##ort
##urn
aclu
bondi
cairns
dicaprio
leaping
woollaston
##ller
##shot
cheerful
dipped
falkland
leukaemia
loser
pledges
provocation
##rm
examinations
farc
jails
jovetic
laurence
roofs
smarter
variation
vehemently
weaponry
##vie
106
ankles
blistering
continents
debuchy
endorse
guarding
hepatitis
mackenzie
pike
premiums
proteins
sanction
serb
incorporated
jelly
kindergarten
moisture
pest
punishing
redundant
reno
slams
standby
tricked
##ants
##born
##ndo
dejesus
descendants
lankan
listens
poisonous
proceeding
rams
takeoff
##ute
derailed
edible
footprint
garrido
imitation
internationals
missionary
thereby
vii
##ids
##lm
alarms
flared
grimes
participant
spiked
weaken
##mers
cholera
dismay
enjoyable
extracted
leverage
logical
mechanics
oriented
peaches
priceless
##iq
##ography
##sel
bearded
corcoran
disgruntled
embark
ennis
lagos
linkedin
managerial
microwave
shipments
souls
swathes
tab
vicar
##dley
##ivity
##mmer
biker
chelmsford
crystals
flashed
frieden
furry
gye
januzaj
ledger
limelight
mechanisms
misty
outages
scrambling
swapping
temptation
unreasonable
##ats
##gent
abby
chunks
constabulary
deng
devotion
evicted
explicitly
obscure
pits
purportedly
solomon
ventures
vow
##ien
##rc
carragher
communal
highland
letizia
lush
schoolgirls
##bble
##rous
5c
agitated
biblical
coe
dickinson
knicks
lithuania
scenic
silverman
##mb
##ologists
##ulate
2000s
amendments
ceilings
complexity
detainee
ensures
fumes
homage
hurricanes
influenza
poultry
predatory
prohibit
quantum
##bag
##like
##pping
##ude
amanpour
bribes
damp
diocese
duct
hovering
hubble
indicator
medallist
olympian
purported
rational
salisbury
substituted
thwarted
unsettled
withheld
##backs
##ffed
##hel
##mber
##nc
##nett
ambushed
brandishing
bridger
debating
eighties
flawless
goose
mould
offend
religions
swans
totalling
##fs
companions
gaze
genital
juncker
lifeline
£17
##tate
114
amputee
dotted
lows
majestic
mastectomy
overdue
peaked
prowess
rosenberg
salesman
samoa
telecommunications
discourage
dogged
exploding
jewel
mangala
misled
quran
sacrificed
strive
trolls
uncover
##minate
##onic
##ose
3g
adored
birthplace
bitterly
carat
ellison
exchanging
knightsbridge
newlyweds
oman
presbyterian
vinson
##hine
championed
conway
diarrhea
enforcing
evolutionary
identifies
malibu
murderous
nexus
railways
rasmussen
researched
schizophrenia
trespassing
vineyard
##how
##lers
##ots
granite
replacements
slippery
unthinkable
yearly
##dt
1937
barbour
cristina
dos
earners
esther
evangelical
paparazzi
pirlo
polished
weibo
##ced
divine
eriksen
ideals
manipulation
physique
zabaleta
£90
##nick
##posed
##sburg
dossier
insights
jnr
shearer
starter
te
atkins
brainchild
bureaucracy
depict
exhaustion
hazel
intimidate
jonas
jules
kaufman
loophole
mommy
noses
propulsion
tunisian
##ffer
##hand
##lav
##sl
##°c
45am
ched
corridors
cowardly
htc
kidnappings
pooch
preserving
remedy
staffing
strasbourg
tones
ufo
##ddy
##makers
##nza
##thing
bonnet
hm
implanted
kashmir
mayhem
maze
mep
neanderthals
posture
readiness
salvation
senses
smoothly
tuck
vicinity
##combe
edit
misguided
modelled
outpost
pyramid
recognisable
scarborough
smithsonian
trilogy
upstate
wii
##ug
1915
centenary
claudio
connell
criticisms
interpreter
slew
stumbling
unseen
wiping
##11
##ato
##lene
##ml
ants
elsa
java
kemp
silicone
translator
##aging
1am
attach
chi
decree
politico
seizing
surcharge
unfamiliar
welcomes
##hot
##lina
broadcasts
eastenders
flour
friedman
handouts
hangover
howell
indies
kitchens
naacp
novelty
paolo
attic
aviva
cancerous
cd
chaired
drift
enriched
feline
lloris
mahmood
mckenna
overcame
practising
reza
sotloff
vaccinated
##ap
##wer
24th
ballroom
blatant
blurred
cancellations
rituals
swore
triangle
##bourne
##nant
##yl
awoke
fielding
housekeeper
knots
paso
predictable
seventies
sings
##ury
320
astonished
beta
lyons
omega
owl
sophomore
tailor
vowing
boateng
curling
desktop
ernst
fragrance
halal
poachers
trenches
##ii
118
environmentally
grin
haines
harmony
presided
samaritan
soldado
adultery
behavioural
docked
falcons
freshly
gypsy
hoodie
lang
lesbians
practise
sentiments
ucla
yachts
##iki
##uit
aol
applaud
equestrian
fanatic
feb
fend
globes
kandahar
macy
manipulate
mist
tagged
tenant
triumphed
waived
##bie
##yu
arteries
confessions
descend
disadvantaged
fahrenheit
fireplace
hooper
lamela
loaned
monopoly
pelle
spawned
thibaut
wessex
##lf
breeds
cod
conceive
drifted
fidel
holdings
jimenez
shoplifting
symptom
versatile
ambassadors
ander
bottoms
co2
institutional
recess
sawyer
sedan
sickened
##bus
##gles
branislav
crawley
differ
entities
esa
grady
graphics
reese
ricciardo
ritz
specialises
specialized
unlocked
£20million
##gel
##mic
##wire
accomplishments
artworks
azarenka
crossbar
dudley
fated
fliers
keystone
kobani
liberian
loughner
meditation
mins
napoleon
ploughed
postings
springfield
upward
##ssa
malm
manaus
michelin
pathetic
predecessors
remarked
resuscitate
starvation
unfolding
barnsley
bikers
chop
clipped
dalton
dismissing
dorner
gated
mouthed
nasser
paralympics
subscription
taunted
ya
archie
carver
connie
elise
gcses
nicotine
ventilator
##ines
##lining
155
330
bowen
jokingly
libraries
malawi
mccoy
miraculous
monoxide
obsessive
particle
planetary
resentment
southend
untouched
1946
210
barring
dodd
mcguire
orphans
progressing
rib
vouchers
weiss
##ister
barbados
birdie
businesswoman
crest
diarrhoea
dimaggio
glaciers
gorillas
greenwood
idf
lunches
racer
rack
ruben
undated
veins
##60
##kovic
##rley
crosby
handguns
merits
populous
realities
swarm
bundle
dobson
habitable
insistence
judd
khedira
lidl
repercussions
shale
1pm
bowed
criticize
donaldson
engineered
grandma
ikea
indefinite
marvin
nielsen
onslaught
packer
paddington
poking
prep
arrows
artefacts
birdies
exited
flush
intel
morphine
nbclp
novelist
swings
##etti
1949
abiding
alternate
blockade
commonplace
easiest
excruciating
forcibly
hammered
kittens
microscope
nguyen
pendleton
sandringham
sustaining
carrington
futures
gleneagles
module
mushrooms
phantom
simpler
skulls
stevenson
viking
##bles
##nna
##nov
##ree
advertisers
cork
deport
dwight
ferrer
flashes
incarcerated
limp
mikhail
qaida
safeguards
slashing
stevie
£85
##13
##ello
22nd
addictive
atlas
barefoot
battleground
cheerleader
detectors
dishonest
dyche
frustrations
intern
partnered
wander
willow
##aba
1938
alba
callaghan
climbs
consultancy
daredevil
drifting
ensuing
fateful
gandhi
illustrate
jogging
julio
receipts
rolf
##duct
angola
blighted
chairwoman
communicated
dives
fade
flyers
paige
pigeon
prehistoric
wipes
60th
galloway
interestingly
lahore
ludicrous
turks
unimaginable
##als
##test
bouncer
kosovo
mobbed
raleigh
stared
strap
vicente
##hing
109
administer
aluminium
burglaries
dejan
infidelity
malware
outage
ridiculed
statewide
storing
thrashed
touchscreen
aug
deportivo
hector
hikers
rocking
snipers
summed
vent
##card
##lift
cite
descriptions
explorers
pilgrimage
poppies
powerhouse
spear
surname
##bb
##bbled
als
backlog
behaviors
breeze
coli
jab
personalised
rotting
selhurst
subsidiary
turnover
##boy
##rre
##tics
authoritarian
beau
bianchi
bowman
fireball
hypocrisy
impromptu
jumpsuit
lamp
orbits
suppress
surrogacy
vegetation
1912
charger
clough
donning
jamal
lineup
redskins
shipman
signaled
undermining
vidic
wallis
##kel
arming
digestive
dignitaries
hotline
huckabee
inflict
machete
pascal
resorted
seater
slack
valdes
whatsapp
##pc
apparel
beg
chant
dove
ecosystem
immensely
ounces
strengths
triggers
welby
##ole
accomplices
autographs
fiber
gazette
landrieu
lucia
rein
sac
thiago
£1billion
£22
##ony
controversially
dances
deploying
depressing
drums
footballing
khalifa
loft
queuing
roaring
showcasing
weaknesses
##rat
alexa
bottled
buckley
cavendish
disposable
elders
excavation
fills
gentlemen
gods
integrate
jagielka
jinping
lg
murky
overcrowded
saeed
schneider
towie
trajectory
waterfall
zambia
##tain
225
bananas
blackwater
bounds
bouts
bundled
fabian
groceries
kurdistan
lester
olson
reluctance
spitting
wreath
##bone
##grass
##lma
agonising
assailant
carriages
dictate
expletive
grievances
hyper
incorporate
mao
precautionary
108
165
arbitrary
bargaining
cisse
hierarchy
hobbit
intercept
levin
lewinsky
retribution
unconventional
unsolved
copied
exceptions
inject
mansfield
recognizing
sheds
tightened
toss
vegetarian
zawahiri
£19
##keeper
ass
burnett
busch
defunct
gin
interventions
minimise
notre
preventable
shaky
tasmania
vendor
blazing
childbirth
cocoa
condo
discounted
drained
graph
injecting
jumpers
loch
notification
physicist
pitcher
removes
schweinsteiger
segregation
soundtrack
technicians
##ear
##eda
##ucci
analyze
berries
clara
cochran
concluding
discontent
maher
natal
wizard
##ator
##oud
##quet
##⁄2
acquittal
consisting
eyewitnesses
grossly
headmaster
institutes
mustard
organisms
ribery
silvio
soaking
stresses
vomit
wanderers
##dies
##eva
107
conor
dots
fernandes
graveyard
heap
lime
mcnamara
pairing
pediatric
petr
props
scanners
takeaways
##shed
alumni
anaesthetic
christchurch
coated
compounded
contends
generator
kayla
looted
menus
nugent
obamas
riches
sherlock
silverstone
slurs
volcanoes
£5million
##ae
##aj
##bers
##zes
accuser
cleverly
columns
exhibits
infuriated
penchant
scuba
seismic
taj
wharf
##vel
advertisements
dial
drenched
glee
kirchner
lauderdale
shrimp
taboo
tirade
vaughan
##play
##vious
analysing
cavani
chained
clemency
cyclone
eradicate
greaves
ibm
limbaugh
meteorite
onstage
ottawa
pillar
pratt
simone
warships
##birds
bullock
creams
cruiser
dangling
divert
dow
ethnicity
hpv
kagan
lamar
lizard
matteo
outlining
patrice
romanians
shelley
subdued
tesla
annan
bamboo
deferred
euthanasia
hardened
homegrown
mcloughlin
overtake
peppers
rum
scissors
tripadvisor
##kis
##pie
##sal
aqap
archaeologist
calculations
completes
genome
prevail
stature
vegan
visually
£26
##eb
advocating
albuquerque
cater
degrading
dislike
dominating
kyrgios
mailed
mare
paved
richer
specializes
wolfe
##xton
26th
baden
coffins
cordon
dine
gallup
hardline
heyday
hooker
ministerial
openness
ornate
paddle
sandals
turbine
wrenching
##gn
##own
##rdon
##works
1951
apache
arteta
caldwell
chess
efficiently
flavor
gigantic
grapes
kangaroo
leaps
outlawed
rethink
scanned
sphere
standstill
sway
##mith
##pac
##rson
##rta
##yre
747
anderlecht
ankara
chrome
comprised
embraces
empower
minimize
nieto
picasso
rhinos
ruptured
spraying
tamil
trafalgar
weary
wolff
abusers
commended
cove
julien
mosquitoes
providence
racy
reprieve
restricting
ria
submarines
uninsured
##adi
##ager
##mates
ample
beamed
bending
captains
edin
educating
landfill
muse
pedigree
professors
retweeted
amused
audrey
browsing
dell
ignorant
louder
motherhood
searchers
strangling
£30million
##acy
anglia
buffett
cot
flourish
housewives
imperative
installations
phoebe
shortlist
slit
tightening
##isa
##nder
##trom
adulthood
deficits
dismantled
erosion
exodus
gaffe
interfering
jailing
klinsmann
peacekeepers
retaining
seeded
stump
toulouse
trades
##nies
28th
buggy
carving
cqc
detrimental
eruptions
grueling
interviewer
mcginley
mecca
mona
presiding
sutherland
vagina
##jian
##owed
##pes
catalyst
composer
hotly
indulge
lakers
pledging
practitioners
probability
terri
##aria
##a€tms
##care
buzzing
bye
cipriani
cleverley
clocked
coincided
dived
envy
guerrero
irving
legalization
myriad
peel
stocking
##pan
altering
anorexia
daryl
fedex
gasp
initials
osman
outset
rehearsal
sclerosis
strangely
thereafter
##dman
1917
200m
bodyguards
deliberations
fetched
gough
iker
jang
lauded
leaflets
mast
morgue
pads
plaster
restriction
tangled
thirteen
truman
##ood
##park
autonomy
baez
crucially
dimitrov
dubious
garments
genetics
isabel
nearing
paternity
rematch
schumer
sonar
sunnis
sustainability
vault
xinjiang
##ield
chilli
consequently
cull
darkest
departures
humorous
kramer
mcgrath
mcnair
rainy
violin
ware
alleviate
coldest
conventions
creditors
dunes
eternal
firemen
intrigued
kutcher
odyssey
ollie
passer
pavilion
scratches
##bes
##lson
##oss
bookmakers
cherished
correction
draper
experimenting
fading
gmail
goddess
hesitate
jindal
preferences
rot
shipment
slices
spielberg
spotify
wee
##hou
baths
beverages
boyhood
cbd
cellino
collier
darts
derogatory
hindsight
hysterical
inclined
jolly
mane
nadia
quad
roundabout
submission
violet
wit
##lent
##qi
##rks
apparatus
aspen
biologist
hardworking
jermaine
molesting
nicely
sesame
stefano
suck
unscathed
varies
##ggs
##rol
##xley
arturo
driscoll
dummy
eton
flamboyant
grains
hoover
marches
millwall
numb
positioning
racecourse
schedules
unmarried
basildon
deadlock
enormously
generates
goggles
gotze
hartford
hazards
nishikori
pandemic
recognises
responsive
salmonella
scratching
tian
vermaelen
weeping
zelaya
27th
49ers
9million
ark
carswell
gourmet
jensen
jetblue
michaela
scouring
sexting
spoon
thrashing
ugandan
##enko
buzzfeed
clicking
cornish
defines
demi
disco
disproportionate
foiled
klitschko
lilly
orphaned
psychotic
reasoning
turbulence
##body
##elman
##lating
##wich
1930
arabs
cadbury
detain
fisheries
gaping
hardcore
horne
leafy
mayoral
sheltered
strand
vuitton
2m
angelo
bain
bliss
bundy
contingency
corrected
jihadis
pearls
probing
saharan
skipped
uphill
£24
##lio
##mation
##tley
bbc2
coordinate
g8
garlic
grinning
handlers
healed
indicators
lenient
menace
ominous
punitive
sadie
shunned
sneakers
soak
workouts
##nnie
astronomical
bras
carcass
defects
flavours
gradual
hates
hind
plucked
realm
roam
systematically
vests
waziristan
yielded
##cu
##gren
##iti
##logists
##nberg
##rod
auctioneers
burmese
dashboard
ethic
fiji
golfers
inherit
keller
kin
kraft
lu
noaa
olsen
peacock
rebound
roster
schneiderlin
sorting
stirring
##city
##ibly
380
ablaze
boobs
burying
busting
cube
einstein
incorrectly
infested
logs
metallic
oxfam
paypal
peek
pinto
retains
shi
stables
therapies
wonderland
wrinkles
bark
barricades
chihuahua
commando
complainant
coughing
dunne
dyson
flattened
intoxication
mantle
proliferation
renee
selfless
shelby
silverware
tasted
toulon
vick
wen
bowled
coulibaly
flyer
oceanic
regent
rioting
stuttgart
testosterone
underwood
unfounded
vista
yu
##agh
##ave
##illion
##pton
chauffeur
colleen
elimination
fluffy
markovic
pounced
resembled
shocks
shrewsbury
stickers
strides
venom
workshops
##jee
ayatollah
bubba
circling
hawke
hypothermia
lager
oculus
petroleum
rulers
splashing
syrup
condom
fia
filner
latvia
loic
mm
oppression
rigging
singleton
stardom
stealth
tuberculosis
##ame
##books
##eel
##etic
beverley
butterflies
capsized
claws
cologne
crowe
darrell
donkey
entity
frenzied
friction
georgetown
georgina
graft
hulk
leaned
malnutrition
paramilitary
pollen
simulator
spoiled
worsening
##ull
accumulated
bait
clinched
guardians
hanks
ince
lahm
rubin
skiers
stubborn
worshippers
##tated
1933
amended
blooded
bystander
cleavage
expenditure
fatality
libor
menopause
mosley
paw
referral
resurgence
safeguarding
sienna
willy
yvonne
ant
beleaguered
bridal
campuses
commenter
cue
decapitated
fairytale
milly
obey
outsiders
privileges
salah
sixty
softer
untreated
uv
videotaped
yewtree
##hea
##sworth
##zzle
1916
composure
cubic
downey
downloading
fats
improperly
incognito
khaled
paxman
publicized
qualifiers
schwarzenegger
scoop
shaft
sirens
swimsuit
valentino
##force
##power
##uate
##yi
70th
anglo
audition
biased
botelho
conditional
crab
gabrielle
hampstead
medalist
myths
rejects
ritchie
rubbed
savers
shedding
suzannah
##nel
##pling
afc
bradshaw
calcium
countered
crust
deprivation
labelling
lindt
longevity
mexicans
na
pic
recovers
revolver
socket
##ass
##bies
##ond
##tty
blasting
booed
botswana
casts
certificates
chopper
chrysler
culminated
dm
farberov
greeks
rumored
shone
skinned
warmed
£700
##aya
algae
commercially
dexter
disrespect
huts
incarceration
isles
jess
payouts
recreated
setbacks
sharper
spit
spoof
trailed
tumbling
zac
zakaria
116
adhere
afl
altar
archer
billie
columbine
compliment
deterioration
femail
innovations
ion
overcoming
patio
prestige
rattled
rowan
sabotage
sims
taco
thornhill
webcam
##ically
##video
145
chipped
hurtful
inhalation
keating
obe
ph
physiotherapy
poked
rescuing
slum
warhol
##kova
##lington
##sdale
aluminum
blazer
comforting
coordinating
dearly
doused
feather
metals
needless
ruining
spans
##ulated
##wright
albany
behavioral
capello
colts
defy
hartlepool
intending
klan
midtown
ronny
sisi
snejana
tangible
tidal
tripped
ushered
##aux
##eal
##ju
##yah
dart
endanger
faye
fraudster
organizer
staunch
synonymous
talbot
##hire
##var
commandos
crimean
darlington
diner
filibuster
ideally
nuptials
obituary
pens
rachael
rammed
rene
rutgers
seeker
tidy
townhouse
##cht
2050
captaincy
comedians
detecting
dole
dysfunction
gatherings
grappling
hostess
icing
inherent
jodi
lola
mustafa
nineties
poke
rotten
satisfying
unrealistic
737
classy
facto
favors
federico
projections
prosperous
smelled
stag
sweating
unaccompanied
##gas
##og
##press
deposed
fu
hurling
instincts
jasper
nestled
perceive
planners
snapshot
steroid
topple
tumultuous
##inski
##nish
calculate
cling
delaney
doubted
fantasies
geldof
hutchinson
kidd
perpetrator
schaefer
semitism
##chy
##uss
##wed
anastasia
belize
decor
digit
feldman
halo
homosexuals
incomplete
lander
palermo
reliability
sammy
syracuse
wilkins
wonga
2030
champ
enquirer
farmland
haley
inferno
kimberley
nudity
pakistanis
worthwhile
##icide
##sta
##wal
airasia
bloke
bratton
dimensions
dysfunctional
hummels
lena
mutilated
nani
painstakingly
punishable
schofield
skyscrapers
stewards
strawberry
zachary
##eo
deepwater
dim
elisabeth
explanations
hinckley
menacing
ny
reflective
relocate
rigged
rutherford
subcommittee
usda
##lling
canon
cinemas
circumstance
cloudy
facade
fin
fooled
heartache
hurley
lois
seasoned
shockingly
snatch
spiegel
waiter
21s
advertise
aloud
automotive
cushion
huddled
madden
marcel
monastery
persist
referenced
reus
sinatra
slightest
slur
tindall
tori
##nko
##ruck
caracas
commissioners
dimensional
downgraded
filings
logging
luca
maracana
pounding
quipped
slots
systemic
traction
unimpressed
##gies
abuser
compatible
enterprises
fargo
maurice
neatly
rigid
##ios
##using
avery
borini
burgeoning
constitutes
developmental
licences
raikkonen
sighted
yougov
##lou
blitz
blumenthal
brentford
browns
bud
captives
chalk
chongqing
colonies
gbagbo
glastonbury
hathaway
koscielny
ledge
libel
pointless
telescopes
##bia
##erly
132
brantly
caleb
drilled
greedy
lagoon
mendes
mischief
molecular
organiser
screenplay
stove
unintended
zoos
##cio
##cott
##iated
##ocation
##oth
activism
assassin
boil
budding
condone
deed
greats
hairstyle
maturity
motorcade
mulberry
oecd
philipp
prevalence
reassuring
simulation
weaver
##rman
##vert
amenities
authored
baltic
beale
certification
debenhams
hears
hillside
hose
impunity
mindful
motorcycles
quell
swallowing
trove
##ces
##elli
##olic
##yne
choke
cooks
couric
dictionary
linebacker
nuns
oblivious
oversized
refreshing
ridicule
segments
tides
tray
##lian
##mur
##rad
##run
administering
annabel
armitage
besieged
celebratory
contributes
cyril
desks
evelyn
feces
freya
irregular
jonah
logistical
marquee
merger
minivan
mutation
pcs
prognosis
robshaw
sixteen
swooped
##sin
anbar
bosque
crossley
faked
fists
ings
mis
oust
plantation
rails
reunite
shorten
stein
stuffing
timberlake
zoom
£65
##dom
##ency
##eye
##lip
commissioning
fuelling
homer
igor
implied
lurking
mandarin
nitrogen
raonic
recorders
stockton
turin
coleen
collisions
expectant
faults
gateshead
gonzalo
guthrie
invaluable
landfall
receptionist
restrictive
scratched
##fies
##tical
aden
bouquet
combating
complied
eileen
embarking
liberated
mitigating
motorsport
papua
quarterfinal
replaces
resembling
supervisors
waged
warplanes
woo
£750
averaged
brothel
cooperated
crossings
cumberbatch
dispose
incapable
mural
overboard
sampling
stalls
tsonga
##och
##zhou
2billion
aboriginal
baxter
bizarrely
clamp
exclude
focal
gridlock
harrow
leukemia
limousine
magnet
smog
wifi
##nse
adolescent
alberta
believers
bombshell
climax
eisenhower
hairs
insomnia
lewthwaite
painstaking
plasma
stalemate
sticker
strachan
transmit
##with
alma
balances
berg
blacked
captained
fernandinho
hen
libyans
overrun
pave
reptiles
saif
santi
slips
static
tails
taps
unheard
winnings
127
aziz
confederate
dior
fearsome
invade
len
levelled
moeen
notebook
switches
whiskey
128
consisted
jealousy
lamented
layout
occupying
perjury
puppet
sherry
teachings
westerners
yen
##rts
arkell
birthdays
blindness
clutches
competes
epicenter
lea
loyalists
mellon
shrouded
underestimated
##itation
##pipe
##tton
##uding
adnan
barbed
camped
clyde
craven
crimestoppers
dialysis
dissolved
doctrine
groped
henri
lewandowski
newborns
streamed
undergraduate
##fit
##quin
##tick
##ured
bedding
bellevue
cache
depiction
gem
humbled
idle
lectures
mound
nate
negotiators
opulent
quentin
scarce
scheduling
treasured
valve
##iner
##uru
acoustic
capita
clancy
comprehend
excluding
gabby
gucci
illustrates
kaka
orbital
preferring
steph
tights
wanna
yazidi
##rr
airmen
atrocity
blur
braved
caviar
confess
containment
diabetic
iris
mandated
reclusive
rocker
ukrainians
##ground
assurance
blackout
buchanan
colt
enfield
enjoyment
essentials
exits
faulkner
freud
guildford
lil
mascherano
mauresmo
mole
patents
whirlwind
winehouse
yellowstone
##ander
##eous
automobile
clothed
dowd
dwelling
edmund
empowered
fizzy
flair
novosti
paving
peacekeeping
recurring
resigning
storming
stung
vibe
weber
##face
##nga
##raz
##sch
achilles
crump
fabrics
gag
heinz
illuminated
limbo
magpies
maidstone
steered
voicemail
##ast
##mg
##osis
##ways
clifton
croft
desmond
froze
giraffe
governed
hoy
kvitova
malky
mornings
munoz
mysteriously
oils
respectable
shinseki
souza
tiananmen
undecided
archaeology
backward
barney
counselors
fundamentalist
gmc
ipo
quarantined
reformed
slapping
stereotype
tumbled
wrestled
##cation
##ema
##eng
##neck
##ssen
bleach
brow
commanded
duly
fetus
firstly
flushing
giuliani
hobbs
hotter
mckinnon
outlaw
polanski
precinct
spam
##rice
##rington
##xia
15am
amos
aniston
bogey
bulbs
cone
dimension
higgs
homicides
janice
kayak
kouachi
lighthouse
nationalists
relaxation
screw
shelled
squirrels
televisions
utilities
vying
wes
##act
3m
ah
burrell
cropped
culprits
dolly
equation
explores
firsthand
gillespie
glitch
incurred
melanoma
melinda
naismith
peggy
refined
skepticism
stitched
sykes
tunes
unnecessarily
zidane
##von
algorithm
badges
carrots
definite
derelict
domino
golds
hadi
mansour
pistols
probes
remission
reset
settlers
slade
uneasy
£350
##eers
##hey
##ret
1m
baird
connectivity
cremated
doorway
everett
furore
generic
hopeless
katz
pinch
solemn
virtue
zombies
##ads
asperger
bum
danczuk
growers
guerrilla
islanders
kassig
kimmel
litvinenko
offline
pocketed
pups
routines
separates
sheldon
shipwreck
signalled
unstoppable
warmest
worm
##ely
##sport
affiliates
bemused
dade
dependence
empowering
exacerbated
gofundme
grayson
hopefuls
mar
nic
ole
racket
raining
renewal
schooling
southgate
startup
stationary
styling
unwittingly
##fest
##gio
additions
bicycles
blogging
bojan
caitlin
cassini
cherie
extras
mathematical
mesa
navarro
negredo
notifications
overtaken
portman
powerball
rapists
robotics
supercar
wedged
£100million
##beat
##ural
##vill
##wards
astronomy
benefiting
debacle
fitzpatrick
foil
golfing
grimm
hectic
inhumane
intensely
iqbal
jp
koran
preceded
tracker
trimmed
tulisa
wren
##iri
blinded
christening
comforts
deposition
evacuations
fabricated
fledgling
hadley
lithium
morality
smelling
tar
trustee
£4million
##chenko
##kan
##llen
##pper
1billion
275
clots
congolese
downloads
dwyer
henley
horribly
norms
rafa
scaffolding
shoreline
spilling
startled
terminals
watershed
winnie
##rim
ar
armor
billing
blueprint
cadillac
dared
digest
entwistle
fronted
ghosts
halved
hilli
horton
insulted
mangled
pancreatic
recommending
runways
spaghetti
writings
##eem
amtrak
categorically
chadwick
coward
fcc
grandchild
hotspot
inseparable
lame
pigeons
restrain
rotating
specimen
suspending
tsvangirai
unjust
veterinarian
ale
discreet
harlequins
marty
monumental
pasadena
sauna
sausages
simpsons
unfinished
##vs
acclaim
basil
beads
birch
bon
cider
clattenburg
convertible
executing
humphrey
klopp
mysteries
responsibly
spelled
stephenson
swimwear
terminate
toxins
tug
unaccounted
underestimate
vivienne
willingly
##pur
##tre
amal
brewery
cigar
clement
climber
docks
dodgy
dramas
favours
gosnell
inexperienced
kerri
leggings
madagascar
ministries
paraded
recollection
silently
tenerife
waterproof
##page
abolished
clements
dianne
dissidents
drawer
fascist
ferrell
friendships
guts
habitats
hijab
instructors
interacting
paraphernalia
shortcomings
spanned
unwelcome
##gger
##hane
123
benches
buffet
commotion
conspired
dyed
echoing
frampton
handwriting
kirsten
luna
multimillion
patty
pryce
regrettable
sian
worms
£16million
##gating
2019
bertrand
collman
davos
deni
etiquette
fueling
mankind
mt
plummeting
remorseful
sage
showcases
tandem
teased
triathlon
##cup
##ele
##oning
29th
albania
colback
emphatic
enquiry
exquisite
fencing
forgetting
hotspots
installment
kosher
lasers
mccluskey
slimmer
superiors
##berries
##most
##ored
##sant
20pm
ailments
chew
crept
gunner
joker
liking
piling
residences
tilt
titanium
waging
astronomer
avail
balding
characteristic
composite
dieting
emphasize
eurostar
gluten
goalscoring
gothic
helium
jahi
mince
necks
ping
placards
sponge
storyline
triplets
xabi
##kh
##mus
##ska
##stin
##virus
aap
abdulmutallab
alias
antibiotic
attachment
benchmark
crutches
drown
emerald
expansive
gems
godfather
lorries
mapped
mentioning
papal
reversal
sneaking
triumphant
whereby
126
4x4
assailants
brazilians
changer
disagreements
discriminated
eiffel
firestorm
haiyan
llc
mlb
moustache
packaged
platini
sa
synagogue
vaughn
##ef
##hale
acquiring
admirers
bingo
bonding
casinos
daytona
footprints
freshwater
hoops
insecure
maldonado
parma
pervert
programmed
shaving
smiley
strategically
zardari
##ault
##unted
bakr
balmoral
bauer
bethany
billboards
briggs
cottages
dayton
deteriorate
dorchester
dynamo
eid
fouled
incompetent
jeanne
limestone
mariano
merrill
quarry
radically
rendering
sceptical
tempting
totaling
whisked
£23
##bad
##hai
##nate
##pad
abs
asbo
blagojevich
cafeteria
domination
examines
famine
hostilities
irina
italia
kaymer
manuscript
postcard
sapphire
shrugged
stashed
##fly
advocated
chimpanzees
compromising
cooker
dodgers
formations
isolate
lumps
preventive
registering
sana
treble
vanilla
##imi
##mons
##world
disrupting
helpline
jackman
lol
marginal
onwards
rave
salem
skeletal
statesman
statistical
vertonghen
##cam
##fu
##nne
bidder
downpours
exemption
knocks
luz
patiently
plausible
rioters
rotation
scarring
sheik
tract
##rting
340
afloat
amputation
asos
belgrade
chores
davenport
dependency
flop
generators
handshake
horseback
moines
notch
pleasance
quickest
railings
shard
viagra
windfall
##bbling
##ggle
##hm
##iger
##linger
##ners
##ntal
##oir
##sford
113
arrogance
cutter
dong
emptied
fahmy
flaw
goats
kindly
manners
markers
moons
moratorium
niche
papa
therapeutic
wyatt
##etta
##llis
##love
buddies
campsite
combinations
dehydrated
digitally
drying
gearing
prada
smoker
witty
yingluck
##fan
##lda
##lot
##ssi
##tech
##tered
##vas
alcoholism
archdiocese
asa
chisora
fuselage
garros
heroics
intruders
motions
motivate
nominate
onions
orient
parting
passions
pedal
romans
slang
thyroid
walsall
##case
autograph
cuadrado
ecuadorian
fil
fundraisers
geek
heterosexual
hijacking
islington
jaime
jayne
landlords
loneliness
mcdonough
obscured
swirling
unilateral
yugoslavia
##jet
##kind
##live
##rop
coles
criminally
crossroads
etched
exhausting
fawcett
greening
handheld
harvested
heed
juve
mating
opta
owing
passive
spicy
supper
treadmill
£50million
##ax
##dent
##dering
##fed
##ough
binky
buckets
cadets
cambodian
chalet
classification
delightful
dread
exceeding
financier
ktla
menendez
mgm
miner
myspace
phi
reefs
roared
showered
stalin
submissions
versace
worthless
##flower
##hra
##tering
1920
beaver
carpets
floodwaters
housewife
impartial
intrusion
jammed
likeness
oyster
parted
postpone
stripper
vigorous
##cic
##gia
##ila
##nall
##pon
abbottabad
apes
carnegie
cellular
colossal
densely
disapproval
dwp
embryo
heralded
idlib
lana
mercer
repression
respite
ridley
specimens
statins
umbrellas
wrestler
ye
##cap
##cer
##iating
##rup
ansar
distorted
foreman
fourteen
inflicting
occupational
springsteen
watt
##for
assemble
cameo
clocks
curls
decked
fgm
glucose
macmillan
multinational
pbs
percy
pierson
pram
quigley
recognizable
skipping
specialised
vigilante
wagon
##ghi
##pic
boob
cate
ceased
christiane
cleansing
coco
declares
diminish
gammy
handmade
horner
patten
radicalised
scaling
underlined
£27
##leigh
##lus
##rail
1910
acquaintance
aspire
audacious
boxers
clarified
comets
concession
disposed
haskell
sichuan
staffed
volvo
##ash
##loss
##ying
abstract
benteke
bribe
disclosures
etan
finnish
infringement
jew
kidding
marussia
rocketed
##goers
0800
avatar
brokered
confided
decency
dined
forsyth
fraught
gorge
hirst
immoral
laureate
lo
monrovia
namibia
perugia
protracted
screenings
suffocated
tame
unforgettable
vacations
##nch
60mph
adebowale
arpaio
befriended
bragged
demichelis
domestically
hagan
kennel
keynote
middleweight
propel
rents
rican
saldanha
swann
vicki
##bby
##rb
abundant
dhs
faiths
huang
labeling
libertarian
mbe
mirren
misrata
scarves
toro
voyager
westfield
##aned
##cey
##coe
##lise
##ois
##pps
##ques
ashcroft
bridesmaids
corby
gq
grail
hove
kg
lam
loosely
proactive
pros
provoking
scoured
showbiz
ulster
##das
##liness
##used
117
4m
8m
abhorrent
franck
infused
ire
mistreatment
morse
orc
paraguay
persuading
robes
saido
steward
##has
##mbi
bagged
bragging
ceramic
clicked
confederation
copying
crawled
doc
guessed
musa
obstructing
rapids
reinforcements
reins
secondly
twists
##ovich
##rity
##ule
133
239
adjusting
affleck
allowances
beasts
boiler
bromley
centred
civilization
controversies
hayward
maribor
reshuffle
stares
thaksin
##iac
##ilizing
apocalypse
ave
blink
bracelets
captioned
concentrations
dhaka
escapes
exhibitions
foreclosure
haynes
hopping
mclean
peas
popcorn
reggie
shapps
whiteley
##aved
##gling
1922
behaviours
benign
concussions
daybreak
fema
foe
gripping
hairy
insecurity
interpret
kessler
maldives
pe
renovations
resolving
sealing
uniquely
##ars
##oes
##troke
abrupt
chestnut
complexion
deli
dishonesty
fortress
mutilation
premise
sandberg
sturgeon
takers
trapping
willoughby
##ime
adjustments
anatomy
chicks
chocolates
conductor
conquer
decks
dissident
gopro
humphries
kobe
losers
messed
pkk
quarterly
ribbons
sabrina
specified
tacloban
wojciech
##ffs
##ink
##sts
##writer
assumptions
beards
breakaway
cedar
culmination
differing
heartland
heaton
levinson
macneill
mathematics
mcculloch
mcgovern
nino
nrl
outlines
painfully
perilous
princesses
radius
reversing
soto
swamped
swelled
trusting
ubiquitous
veered
virginity
##ista
##nson
##nzo
##pool
##xing
20am
accomplishment
encrypted
frankel
goalkeepers
invading
pritchard
redmond
repairing
rounding
tussle
unauthorised
wrath
##tow
aguilar
blitzer
disadvantage
disproportionately
eliza
gael
heeled
hesitation
jeremiah
jubilant
nadine
plume
primitive
rashid
retina
saliva
samaras
wintour
wintry
##pel
##rina
##tu
##uan
50p
a380
colliding
commodity
dealership
discs
inspires
mesh
pradesh
roe
smartwatch
statistic
theatrical
vanderbilt
wa
wedge
westgate
##dia
##hat
academies
affectionate
battering
beige
complimentary
creme
cuddly
fluent
junta
laboratories
os
passionately
typing
vodafone
##bled
##oria
##right
arbitration
barren
chargers
defends
derail
incidence
interstellar
lambie
leahy
marissa
modric
negatively
overcrowding
remedies
stansted
subsidy
tempered
##ania
##ides
##tand
##yr
adel
annette
boardwalk
cashier
dante
devote
guessing
joaquin
johansson
mcalpine
min
petitions
pi
positives
primates
sundays
traumatized
##isha
##ote
121
capitalism
challengers
clintons
ethos
forestry
giglio
goddard
gran
grumpy
invitations
portraying
ramires
starlet
unruly
welshman
wwii
£29
##erson
##iate
##tail
austen
banquet
desires
enclosed
foray
intrusive
lori
malnourished
nassau
philanthropist
pillars
pleasing
quartet
raphael
segregated
sonny
tarnished
unbelievably
updating
valdez
welterweight
wickham
£6million
##hen
##oi
##oor
aruba
bi
breaker
earmarked
fools
lash
lawless
leftist
lexus
maneuver
mcclaren
mirallas
reluctantly
snl
strife
tormented
ventured
##kos
aquatic
cbc
clapper
defected
fife
financed
inventory
keyes
malone
mockery
nostalgia
peanuts
selfridges
suitcases
taxation
torment
##cross
##grapher
##vre
##zie
185
abnormalities
ancestry
armistice
blindfolded
bollywood
brandy
brew
charlottesville
exiting
hearse
interiors
ismail
lyndon
moores
newcomer
pereira
recognising
rug
sicily
structured
yeovil
zebra
zolfagharifard
##jon
##lad
##ups
akbar
atf
brilliance
corbett
dwindling
edith
hateful
impulse
intolerance
lieberman
mango
oaks
paused
relentlessly
starters
supremacist
whitehead
##ride
alternatively
belo
cavalry
crazed
discriminate
dismembered
embankment
frosty
luhansk
moussa
needlessly
numbered
redemption
refinery
shortfall
stirling
uh
ventilation
##bolic
##gled
##ibe
apologizing
ashworth
ceos
dialled
discusses
disparity
dugout
exercised
feyenoord
firefight
nightclubs
octopus
playoffs
railing
ripe
sandro
stimulation
##ages
##dson
##nian
##sb
##utt
##wald
alain
decoration
intimacy
jams
keneally
lister
measurement
olympiacos
prominently
rods
sanjay
slough
straps
twisting
##hone
##jah
##ulton
298
bun
cherish
decorating
defectors
dismantle
gras
indirectly
kaiser
landslides
nationalities
negotiator
notting
regis
retreated
sanogo
##rdo
##uts
affiliation
ascent
bing
bruni
carly
comprises
contemplating
dignified
dotcom
jars
placenta
rout
rumor
taiwanese
tymoshenko
unreliable
##int
##lant
##rella
168
cobra
crook
entrenched
frisky
mandzukic
mattered
paranoia
pierced
radicals
stalked
trafficked
veiled
##illy
##kill
9mm
accolade
adventurer
ancestor
artificially
claimant
cords
declines
derrick
doting
fein
felon
fiasco
fifties
finalized
hastily
independents
interrogated
learns
remake
restructuring
revamped
rodent
solace
thumping
tram
zetas
##pit
##san
007
adversity
bonhams
compass
creeping
fireman
hatched
hawthorns
herbal
juveniles
kilometre
klose
lien
mongolia
peculiar
salman
sloan
spikes
tayyip
truss
tweed
##80
##any
##elin
##lop
##oun
articulate
beware
callers
chechen
chimney
equalizer
gathers
inspecting
meadow
namesake
pugh
sporadic
standout
syndicate
ventura
vivian
##nating
##sos
129
aaa
adapting
arfa
esteban
fraudulently
injure
irregularities
leila
malls
mantra
piercing
ploy
polk
scalia
stalker
##foot
##ining
##rel
##yle
cashing
cyanide
democratically
merged
midland
psychologically
siro
souvenir
swarmed
##ben
##duction
##ending
##glass
##sat
candlelight
cookery
drainage
erase
evidently
expeditions
flipping
infiltrated
malfunction
metabolism
niall
pervasive
precarious
rehearsals
scrawled
sec
shampoo
squeezing
workmen
£28
##acing
137
anchored
auditorium
canopy
capsules
cardigan
caterham
cheng
decorate
depp
disagrees
excel
gail
genoa
gil
inhabited
ip
macleod
mermaid
morrissey
plumes
spoil
widening
##cum
##ibility
##sp
archipelago
congenital
dismayed
dreaded
fairer
forging
jacqui
ludogorets
ness
politely
redundancy
refrigerator
ricin
shovel
£8million
##coat
##gill
##gnon
##uli
awarding
communism
constraints
conte
cooled
creep
faction
fared
forceful
halves
leroy
opium
pastry
prevailed
pulitzer
shattering
slums
sprouts
trivial
wilkes
##esha
##lett
##mps
##word
astor
barr
bodied
bonded
brigades
destroyer
dough
evie
fertile
fiesta
gt
insert
moose
petite
petrified
pip
torturing
vw
zhou
##oro
##tles
##zar
anglican
ballmer
banged
biographer
deficiency
detonate
fortified
fraudsters
gangsters
gma
invites
lettuce
lymphoma
mullins
otto
parcels
reece
sacks
stinging
swoop
unsustainable
windshield
xavier
##aan
##active
##bot
##cting
##nton
bedtime
brixton
clears
faeces
frazier
gash
heston
lexi
loopholes
magnotta
munitions
prohibiting
saddle
terrestrial
yonhap
arcade
bulb
burrows
demonstrator
denials
eroded
figuring
flashpoint
hank
hermann
maxim
mcdonalds
parades
persecuted
poems
punters
selma
£21
##ein
##rse
##uro
activate
assert
contraceptive
degeneres
diva
dugard
eighteen
falkirk
flops
horizonte
incensed
kelsey
mortified
nicholls
overlooks
patriotism
reconstructive
rnli
scrapping
talisman
timeless
undermines
valuables
yazidis
##orf
##wning
365
afield
bezos
criminality
eccles
feisty
mcintyre
mushroom
objection
odor
refurbished
torched
tri
vance
wellness
##borne
##duce
##nny
4s
advancement
braun
broccoli
clandestine
coating
cruised
defraud
follower
gong
maxi
mehdi
postman
sedated
##lls
##nese
##rone
##sit
acceleration
adoptions
apologising
bureaucratic
cavity
collaborated
conley
eta
granny
gubernatorial
hobart
ied
langley
modeled
mortuary
mosaic
scholarships
squares
tolerant
wycombe
##eu
##haven
##hic
##nto
##vine
affectionately
believer
bulldog
consultations
dedicate
edgy
feasible
geared
ginsburg
halle
nepalese
pillows
prototypes
racking
repaid
restroom
robbins
scarlet
skate
sodomy
sores
underworld
val
vantage
##awa
##lander
##uth
1900
1932
31st
alana
circumcision
clerics
craters
dalglish
digits
hamm
holidaying
hubs
inception
johan
martins
mascara
outbursts
praia
rust
scandalous
shakhtar
sneijder
tabs
waterways
##aker
##boards
##chen
##esh
1935
6m
950
accelerating
advent
allred
connors
contended
decidedly
frigid
hamlet
irritation
jarrett
knighthood
luring
mistook
raucous
reassurance
sermon
temples
uploading
##bet
##bit
##plane
avert
bonas
boyfriends
capitalist
cheetah
doom
equatorial
fitter
frogs
policymakers
prefecture
sporty
upheaval
##eg
##walk
122
124
1800s
bacary
boas
compartment
crib
extinguished
farce
flirting
gee
geographical
grimsby
mitigate
nun
paddock
patterned
pioneered
shrunk
snoop
splits
##ffe
##mbo
##reen
##stand
blackett
blasphemy
bracing
eli
henson
johnstone
kirkova
ringleader
riyadh
shooters
specialty
tatum
upgrades
wakes
wichita
widows
yvette
##awi
##gu
##oll
##rand
3billion
accusers
briefings
carded
carve
chechnya
christensen
citation
conan
discredit
endorsements
engraved
entirety
flank
gardeners
harvesting
hodgekiss
inducing
irritated
koh
luka
melwood
nasal
plummet
populist
refunds
reminders
##girl
##lter
##rid
assertions
baggies
breakup
courted
ee
flintoff
newsroom
perspectives
rogen
shepard
stain
tarantino
##0million
##acio
##ards
##mmy
##nay
##sted
asif
atoms
cardiologist
carrot
coerced
colombo
corresponding
dhoni
firth
fischer
fran
giordano
higuain
hubbard
loo
muted
ouattara
pyjamas
spearheaded
tang
tireless
undetected
venomous
wording
##iko
##rth
131
astonishingly
babysitter
cheques
cilic
coffers
commemorative
cv
draining
dumpster
eliot
grantham
lawton
messing
nicki
noticeably
okinawa
passages
susie
tempo
toffees
unconditional
##ail
##iss
##kle
##mobile
##rdi
accents
chap
dipping
ernie
fiat
graders
harrogate
hendrix
khloe
ormond
prosthetics
render
roasted
rolex
sigurdsson
tadic
vertebrae
waterboarding
£12million
##25
##rite
##zai
##zzling
214
delph
foes
gigs
hooks
ignition
josephine
kcna
microscopic
motorola
muster
referencing
sinaloa
swerved
tyrone
valuation
##hawk
##llah
##rill
##verse
adolescents
booster
cornered
dizzy
gibbons
heck
jerseys
lacy
lucie
packers
parasite
ransacked
regulars
rollout
subpoena
unlicensed
wallabies
wrestle
##att
##bah
##ead
##ffin
##fighting
##iff
##ones
162
almighty
animosity
azerbaijan
bremen
coy
deutsche
discouraged
distracting
eligibility
enclave
excavated
foreseeable
gomis
hamptons
hapless
irrational
mansions
pragmatic
psaki
rodwell
saul
spinner
thor
transcripts
twenty20
##ares
##igo
##ono
##rne
##sation
##urst
bernstein
blouse
compton
divides
grainy
granada
gymnast
haqqani
ku
optional
palms
reforming
reopening
replays
reprimanded
spaniel
stately
terraces
unsuitable
viciously
whipping
##ald
##nger
##pd
144
angie
burt
chili
dividing
elevation
eyebrow
fray
freeing
iaea
kilos
lashing
maverick
racketeering
sinjar
squash
tentative
##gm
##lich
##now
##uating
555
breastfeed
calgary
carbohydrates
crusade
dougherty
egan
finalised
fling
forearm
humility
larsson
norovirus
panicking
platoon
puncture
rodents
sobriety
sorely
sync
twister
undefeated
watchful
wilcox
##guard
##iles
##tening
##zon
authorize
bloodstream
calibre
dismantling
enact
epsom
hammersmith
knickers
ospina
peugeot
pluto
rangel
shortest
snub
sonic
stoppers
substantive
warranted
writebol
##cliffe
##tling
bastian
caucuses
chokehold
contributors
culturally
draconian
elegance
excelled
fasting
glare
hawks
kara
marathons
maricopa
mccabe
narrowed
noodles
orchard
outlandish
spaniards
sparkle
£42
£450
##aine
##nock
##tock
blossom
brin
bulletproof
concerted
distinctly
djs
guild
hester
ignite
impeachment
psv
roux
sewer
shack
shameless
slalom
troupe
turing
uninjured
walkway
##bil
##emia
##lines
##pped
##riate
##rise
armies
bartender
biscuit
brookes
cal
canadians
divorcing
ecological
environmentalists
expresses
grammys
hp
kgb
marley
massimo
mayors
raffaele
sampdoria
seafront
sheryl
unleash
utd
##gne
##uma
##zu
119
asiana
dodging
firework
floats
germs
graaf
intercontinental
krul
lifeguard
mythical
nicaragua
nyad
porridge
sniffer
venables
##ggling
##onte
##rious
##tana
400m
blackman
coded
demeanor
electrician
establishments
handover
hydraulic
impairment
incompetence
kagawa
roche
squalid
succeeding
tariffs
yogurt
##ais
##lins
##zone
amends
bafta
cannons
catapulted
chord
clinically
coined
dello
enroll
garages
grazing
grinding
im
jurassic
jutting
legalize
meats
ombudsman
palaces
pulmonary
sandbags
snowstorm
spence
sublime
tearfully
tremendously
triumphs
ultraviolet
##hman
##marsh
##mma
##tating
acids
alerting
astounding
atlantis
bonfire
booted
competitiveness
customary
disfigured
eatery
emaciated
gears
grotesque
lamps
mcallister
orbiter
rebuffed
recep
skis
slippers
spiralling
stopper
torrent
watergate
##ami
##call
##nz
##rative
amidst
antenna
basel
brushing
comrade
condemns
es
garland
gravel
hitman
meryl
natwest
neurons
proponents
quincy
salma
simulated
unsupervised
uprisings
valleys
vibrations
widower
##bis
##bos
##haus
##nen
##nting
1929
applicant
carcasses
dispersed
livingston
minaj
mundane
nuri
pinterest
unhcr
worded
xl
##45
##floor
##onga
##yon
amelie
badgers
beheadings
boyce
chatter
considerations
deplorable
emission
endemic
excerpts
exiled
fondly
fusilier
gonzales
hampden
icelandic
inherently
judgments
leans
mahal
mallorca
moussavi
newell
outsider
persisted
photoshop
stressing
teesside
xu
##erton
##esis
##genic
##grad
##oka
##rah
annexation
armani
bondage
choudary
coates
convicts
crimson
dailymail
disused
doughty
freezes
imaginary
lender
maestro
mcarthur
misunderstood
nodded
norwood
paisley
pandora
prescribe
propeller
residue
respecting
scares
shoutout
sluggish
streep
universally
verification
##mist
136
attenborough
disappoint
encryption
furiously
harlow
hustle
imran
motivational
nigerians
procedural
redacted
stanton
thirsty
tiredness
unravel
warburton
##anda
##hearted
##ieri
##rit
##tary
##uel
##vich
aldridge
ashraf
avoids
basque
complacency
conquered
cubans
evenly
gosling
heats
hesitant
ineligible
insured
intestines
lodging
manipulating
mcintosh
meticulous
petro
plugged
portrays
rink
rwandan
salads
severance
stapleton
##ckley
##jun
##waite
20ft
babe
belcher
cheerleaders
clacton
congresswoman
daraa
descending
dusk
eyesight
lieu
lockett
microbes
overlook
proton
pseudonym
sewing
untold
worsen
berezovsky
comprising
constituencies
countrymen
curly
jos
keira
memorials
perpetrated
physio
planner
protestant
sails
showpiece
sur
theodore
trunks
uzbekistan
vetting
##mc
##zier
10ft
1928
4ft
acquaintances
amman
biodiversity
casing
chemist
complement
confessing
delegate
diversion
haitians
haye
juggling
layered
linen
mattresses
moat
momentous
motogp
oft
ottoman
practised
satisfactory
scrub
sharrouf
snail
taker
teasing
weaving
##arra
##glia
##hoff
##its
##jack
##ril
##uated
constellation
exemplary
fugitives
indirect
kristin
leash
loaf
macabre
mckay
mired
navigating
odin
rightful
satire
semester
shapiro
trailers
u2
uncanny
untimely
warne
woven
yan
##ifiable
##ination
##lica
##moor
##nos
##oh
##sive
brokers
collapses
dazed
decomposed
donnelly
eckert
flowed
glazer
infinity
lifeguards
miracles
peach
realises
riviera
sensing
sexes
spitfire
veg
##uds
##women
##zzi
analyzing
avenues
bangor
bargains
chipping
compulsive
elias
existent
flotilla
grind
herbs
homelessness
incest
kph
looms
parallels
pussy
satin
somers
stenson
supernatural
toledo
vaginal
yves
##cise
##far
##log
##nard
##tting
420
aiden
canoe
filipe
gogh
legalized
m25
maple
neighbourhoods
pebble
pharmacies
recklessly
saturdays
shoving
silhouette
texans
treason
umar
vega
voucher
##eting
##fort
##izer
##liff
199
akron
alleyway
bloated
clyne
conception
dilapidated
hallucinations
helens
khou
mistreated
rt
sip
sock
tombs
unprotected
westchester
woolly
##qua
##tus
admittedly
asians
averaging
bridesmaid
caucasus
commissions
contemplate
coupe
digger
disturbances
forcefully
hereford
hoard
hyundai
icloud
kendrick
merah
ovaries
priscilla
se
seventy
uneven
wheelchairs
arduous
bazaar
bjorn
confuse
deposited
fibrosis
firepower
hadfield
hebrew
incurable
indecently
indie
intrepid
libi
manoeuvre
mendoza
pence
proxy
psychiatry
sandiford
sloane
tripled
trojan
unsettling
yousafzai
##busters
##course
##ials
##pass
analyses
avoidable
backroom
bibi
biggs
comb
conman
cosmopolitan
dapper
deco
dormant
dowler
ferries
heroine
legia
limo
ling
maui
motorcyclist
reside
restitution
rudolph
stepson
stockpile
thwart
tutu
urinating
##aar
##cking
##isse
##nky
almond
compounding
decimated
elk
emeritus
exonerated
flavors
guangzhou
gwen
juliet
larson
marsden
martyrs
md
mindy
nuland
peril
potts
scorers
sculptor
serviceman
spectacularly
tequila
unaffected
vacated
warmly
weakening
yell
##100
1934
40pm
concealing
disillusioned
glock
greatness
kony
mcchrystal
megrahi
regal
reich
scorched
sentimental
unison
walid
##agon
##eve
##hop
##inate
##kamp
##kon
##nity
##runner
##vity
##°
bereaved
billowing
calming
clusters
collagen
diploma
finch
foxconn
inaction
investigates
magician
ming
shelved
shiites
sinn
strongholds
udinese
wanda
whichever
##gos
abrams
anchors
berger
beset
crafts
culpable
distrust
hama
handball
hobbies
lombardi
marca
michaels
odegaard
paediatric
sauber
telegram
throats
workload
zamora
##osphere
##outs
##sec
##vor
aback
aground
appointing
beneficiaries
bradbury
confrontations
cullen
deterred
distractions
intravenous
kung
labott
lyme
margot
mauro
mccall
motorbikes
photoshoot
revamp
savio
thirties
£130
##current
##ographer
000m
administrations
aeroplane
awakening
convoys
cowan
disconnected
expulsion
eyelashes
flora
illegitimate
importing
kc
khartoum
lagarde
metropolis
parlour
pecking
pharrell
philips
piccadilly
regulating
sarin
stains
surging
undertook
videotape
wacky
zimmer
##cano
##frame
##ndi
1925
ashya
beaumont
collateral
elche
estuary
fictitious
mischievous
overflowing
peck
postcode
rag
representations
seldom
shines
sideways
slotted
sniffing
wonderfully
##ided
biologists
caballero
calmed
clung
cm
combative
demo
denny
forehand
franz
henrik
initiate
itinerary
jerk
keogh
patriarch
pinnacle
regeneration
russ
shambles
token
willingham
##bering
##ont
##sc
##under
brig
cregan
daiichi
evaluating
extracts
indicative
khmer
madame
maidana
oriental
phases
polluted
quashed
salazar
soyuz
taunton
weymouth
##ank
##aving
##rest
90th
allianz
boroughs
buddha
chaplain
combing
demon
diagnostic
honduran
marianne
miscarriages
ofgem
pitching
radaronline
roach
simplicity
syed
##hia
##itor
##rez
bray
cancun
chesterfield
commemorating
condolence
crumbled
fanfare
franchises
illustrations
minibus
overtaking
puberty
seabed
sens
swamp
tanner
worryingly
baseless
byrd
characterised
commemoration
connelly
digs
eriksson
exhaust
fatima
goode
guangdong
guidetti
hearn
impressions
jug
mcgee
meps
mirrored
palette
postcards
reprehensible
sensory
sweltering
unannounced
wearers
##ddling
##max
##sr
##vator
##zzo
bombardment
bucharest
complacent
confidently
conspirators
dislocated
disruptions
embellished
forwarded
hemingway
histories
inverness
kidman
lambasted
lobbied
lookalike
mutations
philly
reps
silenced
swede
unattended
uterus
whiplash
wilde
##dd
##jar
##rco
afar
alyssa
anesthetic
awash
bikinis
bling
cartoonist
cds
chemo
cons
conservationists
cramps
crap
curvy
editions
edl
folding
hailey
heartwarming
hides
iaaf
khobragade
manually
origi
pixie
refurbishment
skydiving
spinach
stalwart
wei
##graphy
##lized
##ores
aborted
aches
ambrose
catalonia
cleaver
converts
crumpled
cuddling
dictated
greste
hectares
heroism
macau
motionless
nightingale
panther
piloted
ppi
preaching
preventative
punjab
rae
tortoise
wigs
##eca
##eded
142
30mph
480
blower
boone
comcast
deserving
downside
emit
equalised
functionality
guise
immaculate
lipped
marian
nel
sombre
sucking
supt
taunts
ty
unification
whistles
£55
##70
##bani
##fts
##shan
barricade
brows
chengdu
christy
edison
glued
grudge
inscribed
inscription
laos
newsweek
nspcc
paycheck
predicament
rankin
sahara
serene
speechless
strolling
valls
wiring
##banks
##dden
##ivating
##nai
##quist
adjustment
airwaves
anticipating
antony
backbenchers
calves
determines
gawker
gravitational
hails
harass
houghton
impressing
introduces
manu
mash
mombasa
montenegro
printers
reel
sigh
transatlantic
ubs
£1m
##rance
##rry
##strom
##tman
##vina
amin
arafat
bewildered
brunswick
churning
defensively
gloss
gushing
hiatus
hoddle
intervening
kruger
liners
premiered
primark
roadway
robe
seventeen
sidney
spills
stairwell
whaling
wrecking
yankee
##base
##iting
##lain
##lal
##nsen
##rable
abedin
appellate
assassinate
bragg
coasts
databases
diapers
fenton
foreground
gracious
havens
hess
homophobia
juices
osbourne
penetrate
progresses
rove
suppressed
thorne
yields
##gus
##ptive
##rns
batter
clout
defenses
designation
elomar
embarrass
equals
flanker
honorable
infertility
lenny
levante
meteorological
pt
rowdy
sizable
skincare
steinberg
tending
vindicated
##ester
##sten
##vary
134
aidan
amc
approving
axelrod
backfired
bidders
concedes
flocking
forgery
fungus
gloomy
hercules
impassioned
loom
reap
remarried
ronan
salutes
scams
soliciting
specter
tossing
waiver
yoghurt
##24
##mir
138
adjoining
braced
capitals
clashing
edging
elysee
enthusiastically
galveston
grizzly
hangar
insulation
nailed
oddly
paste
prism
rationale
sorority
southbound
tees
wardens
zahra
##eria
##ingly
##meal
##tream
##zio
braces
buttler
calculating
cnet
dashing
doris
empowerment
fertilizer
hitch
mervyn
metric
ornaments
pfa
resuscitation
salty
squid
therapists
##ede
##nelli
##polis
7billion
7m
cherif
cinderella
conclusive
documentaries
dripping
eastbourne
enoch
exported
goldstein
haas
humbling
inspects
livingstone
lovingly
mir
needy
nhl
northumbria
polly
recount
scoreline
sniff
toole
walled
##dock
##gated
##utter
bland
entrants
espanyol
etienne
eurovision
indifferent
lothian
mariah
mcguinness
mobiles
nestle
proposes
salim
semen
simulate
spaceship
survives
£32
##brand
##cratic
##eum
##laise
##lem
##market
##rrie
##stered
##urge
149
abducting
acne
borrowers
cinnamon
cystic
droplets
fins
heartless
hunts
irreversible
kinect
louvre
manly
mdma
prandelli
pretrial
ripple
shears
sunken
taunting
vetoed
vickers
##6million
##game
##hya
##lights
##mara
##oons
barroso
chopping
clasico
dprk
factual
hassle
hindered
kirkuk
mackintosh
meaningless
nearer
outings
pizzas
portal
primate
pyramids
redevelopment
relevance
uttered
youngs
£160
##brick
##ference
##iatory
##poon
##rom
##wave
##writing
166
abort
acronym
amend
britton
captivated
contostavlos
ditching
durable
frequented
gravely
grossing
homo
intrigue
kettle
lavender
lbc
memoirs
olympia
pulp
rarity
saxon
shaming
similarity
skins
stabilize
stench
strolled
waded
##aged
##itary
##llan
##mble
##rked
adore
consist
culminating
curl
duff
hhs
iced
jermain
kale
khalil
laguardia
lobbyists
nonviolent
ponder
recounts
relic
seeming
shirtless
stevenage
tranquil
uc
##creen
##hadow
##iation
##trating
##uch
apocalyptic
disturb
dizziness
exceeds
funnel
habib
horizontal
lymph
martino
mi
nfc
passerby
peng
perch
queued
rooftops
skater
staggered
visions
##dre
##formed
##gro
##ports
##stead
##stream
##wo
141
accountants
aisles
antibodies
boosts
browse
cabinets
centimetres
compensated
downplayed
heaped
hoisted
hue
larisa
lunged
npr
savagely
submitting
visitation
##dled
##kas
##nham
##oney
##zia
bowlers
caulker
cautions
directorate
erika
karate
lagerfeld
malley
melody
meme
openings
parrot
plateau
practitioner
rohingya
rosen
sizeable
striving
stumble
sunscreen
sweatshirt
tracing
ultimatum
whips
wwe
##eration
##helm
##oring
##people
##tov
baggy
bordering
buckle
coincides
decreasing
drury
emblem
expands
impeccable
kaplan
lynda
orangutan
pelvic
porcelain
punctured
radiant
seminole
shady
sneaked
somber
stupidity
turquoise
vulgar
##bre
##iously
##shaw
##skin
bureaucrats
cemeteries
comical
convened
dom
exhumed
flap
fragment
inconsistencies
incorporating
indictments
invoked
leniency
listings
modify
ninja
orphan
penetration
periodically
psychiatrists
psychic
shelvey
spied
sprinting
superstars
tariq
thicker
vandals
wasteful
##ocate
##ox
##pal
##rle
215
adoring
bashing
boca
bowers
dillon
disappears
favourable
fielded
filtered
haider
milestones
moniker
professions
rowland
softly
stephane
suri
vaccinations
##eger
##ili
##mans
##nar
##owitz
##quel
##rion
##thering
##tm
##uing
##yde
blunders
candice
caravans
caregivers
crooks
emitted
extremes
grease
indiscriminate
knitted
leung
liquids
lowry
masterminded
matilda
menswear
parkhead
pas
penelope
sissoko
stakeholders
tai
ticked
totals
visionary
wettest
£125
##cised
##gence
##ght
##ingham
alaskan
alessandro
backside
bengal
boardroom
cabbage
chadli
cylinder
depardieu
dolce
ealing
ghaith
hamburger
immersed
kite
launcher
meg
phobia
pods
potassium
purity
ramifications
rumour
samson
screenwriter
shabab
solihull
um
£39
##44
##aning
##holders
##moto
##ndon
beetle
breadth
chernobyl
complains
contrasting
emigrated
federally
gallacher
incursion
indecency
indifference
mendez
mentoring
mers
minster
patton
pitted
secretaries
squandered
##burger
##gc
##met
##rates
##rling
##urus
accolades
ashford
ayman
campers
chases
conducts
continuity
coolest
deluge
deportations
depraved
eclectic
emre
heatwave
m6
maximise
montpellier
pans
philae
plumber
registrar
relish
rollercoaster
rue
squarely
strategists
trait
wannabe
##aire
##ctive
##cular
##fare
##rov
##tled
##trip
6billion
anglesey
atheist
belinda
camille
cayman
chapters
chassis
cordoba
fleeting
greetings
hopped
isabelle
macpherson
nj
raunchy
regan
reproduction
shetland
sinks
sleepless
superficial
swath
##ctic
##gt
##hold
##hua
##icle
##issa
##rber
andrade
atherton
bolstered
bows
candiotti
chatham
correa
entrepreneurial
gatland
hover
incriminating
jemima
leaflet
mayan
nativity
neptune
originating
paced
parisian
pioneers
puzzled
quadruple
rotate
sadr
scripts
strands
trotter
##eet
##locks
##mme
##natal
##pus
##rer
##sical
##zilla
aung
avengers
bled
ciudad
cmdr
collaborative
crackers
diallo
hackett
macfarlane
mays
mcclain
modesty
rodrigo
whitaker
##aking
##patrick
##uto
##vb
##vities
affirmative
appreciates
baskets
bernardino
billings
bludgeoned
bolts
comparatively
customised
dartmouth
doubtful
encrusted
flea
flourished
grillo
hallmark
halting
hauling
ingenious
lillian
livelihood
marcia
mccormick
meteorologists
michoacan
oestrogen
pediatrics
peyton
quieter
rakitic
selena
stave
sven
sylvester
titans
torquay
##allah
##ener
##ghton
##hong
##inating
##lake
##vard
##wl
212
blisters
bogota
contradict
corrective
cozy
decorative
duel
extinguish
healthily
herzegovina
karaoke
languishing
medley
migraine
nappies
potro
quaint
relics
saloon
smeared
soften
telecom
tijuana
withholding
##arian
##asi
##due
batons
canals
caramel
clementi
detox
doughnut
ecosystems
greenwald
immature
ji
merchants
ninety
rios
sexiest
shrien
standpoint
teller
underdog
wallets
wilder
##hie
##lists
##lude
##meyer
##night
bowles
cbe
cherokee
chevy
chunky
creed
fleetwood
gosh
kimi
mcmillan
meticulously
misplaced
offshoot
ora
praises
shenzhen
shriver
simmering
specifications
swastika
thirst
touchdowns
tuning
unethical
validity
##roll
##uette
##yed
##yers
10million
antidepressants
basilica
cadet
coburn
crossfire
downright
eoin
erupting
glitzy
gul
hamper
heirs
humpback
inducted
lag
lazar
plated
pottery
retention
scapegoat
sipping
stevan
umpire
williamsburg
##ffle
##sca
##uation
440
beggars
beneficiary
brittan
chow
cul
cvs
font
giuseppe
martyr
napa
nutritionist
outnumbered
outweigh
plainly
rite
samba
scandinavian
setup
shoichet
snr
southport
undo
vr
xxx
yusuf
##mler
##rade
##sion
##uf
airman
bionic
elijah
enlarged
gland
implies
klux
magna
marx
mccollum
monsoon
mourned
orderly
ponies
rs
sophistication
stebner
sutcliffe
watchdogs
waterfalls
##ase
##athlon
##bold
##liver
##ogan
##sar
310
alto
ballooned
camper
costello
dahl
drayton
lowly
mead
mehsud
melee
nephews
newlywed
panthers
plumbing
scorching
scudamore
sleet
slows
staffs
tailed
variable
##dry
##gett
##heimer
##therapy
##tore
##wu
axis
chilled
colouring
dwayne
harshly
headlights
heavens
horsemeat
kia
libby
maddie
natalia
reconstruct
severn
transformers
transpired
vortex
##khar
##media
##ption
##resh
##rist
##zak
accommodations
belgravia
bestselling
bourne
carvalho
cues
fancied
frying
hatton
maersk
mortars
northbound
phuket
raiding
realizes
rothschild
scherzinger
sediment
toxin
vending
wan
##chio
##cited
##eur
##nin
bosch
darcy
distanced
dryer
extradite
giovanni
gloom
goran
haze
lim
listers
monti
muamba
newcomers
overtook
pepsi
pesticides
sars
scourge
stoked
su
wbc
##azza
##date
##form
##mical
##odge
##onin
##oos
bittersweet
cloak
endeavor
glover
huddle
intestine
jethro
kat
nicest
oracle
prevailing
pulses
rescues
tankers
tata
trekking
typed
unconfirmed
zarate
##50
##icited
##olis
##wc
acupuncture
balconies
bartoli
berman
boar
bobo
cllr
demolish
depleted
disconnect
discredited
fixes
flashy
infancy
jiang
launchers
lockheed
marlon
masculine
mladic
sewn
slowdown
stud
testicular
##bat
##erate
##mead
##rtan
##user
143
1931
25million
auctioneer
bnp
cosmos
eliaquim
entrances
flier
gritty
grossed
imply
isco
joyous
leased
louie
neonatal
painkiller
parasites
pinning
ruse
shredded
stainless
strawberries
tariff
tutor
ufc
vp
##ady
##cham
##cp
##inated
##ined
##pole
apiece
beachfront
bender
civilisation
continuation
correspondents
delicacy
dijk
dorries
expo
fe
haute
ingested
magath
pg
playbook
reclaimed
trashed
versa
##fying
##mming
##plicate
##usion
4billion
bearer
bigotry
competence
diminutive
diouf
eerily
escobar
faking
fergie
fonte
hailing
inconclusive
instinctively
ketchup
looters
malian
marvellous
molotov
olga
putnam
relayed
rye
shortened
tessa
thrived
woodstock
##chke
##icit
##opathy
##ssed
##zac
152
30ft
anya
bert
bitcoins
broward
brushes
caesar
chubby
clair
commenters
compliant
complication
conned
detractors
inflamed
jenkinson
joplin
lucan
monreal
moors
mundo
mutually
neuroscience
nonpartisan
owls
potholes
repayments
royalties
snubbed
statistically
tacoma
taipei
textile
vengeance
##iful
##leton
##mey
##mines
##naut
##nty
##reta
##uses
##wai
100ft
barricaded
bassett
brood
carlson
cautiously
citrus
dawes
deepening
deflect
destroys
disclosing
eminent
emir
gunning
hourly
intermediate
isa
kneeling
lescott
lexington
manipulative
mustang
pear
prescribing
radicalized
rambling
sane
tibetans
upped
wisely
##bbing
##gram
##mana
##ormity
1800
aggravating
autos
bellew
deirdre
diaper
donuts
doreen
fabianski
fatah
feng
flamini
fore
ghetto
horizons
interrogations
kelvin
phenomena
rac
redwood
scotch
seamus
taping
##01
##eka
##lete
##nner
##tec
139
154
ape
ayla
beasley
cabella
catalog
chills
cnbc
cricketers
dermatologist
diafra
eddy
fellowship
fracturing
ftse
gratification
guede
harare
incendiary
instyle
journals
leyton
medicinal
oppressive
revisit
roommates
senna
snooker
stamina
storytelling
syringe
unhurt
vehicular
widowed
withhold
zimbabwean
##ited
##nated
##nka
##take
##urised
147
antoine
barnet
camels
chibok
chimpanzee
chronicles
drinker
flattered
fuming
hysteria
intolerable
janmaat
jog
latex
licking
milne
neurologist
pickering
rehman
stacks
surpass
sweeps
tendencies
throttle
##aly
##dington
##eson
##rying
##vision
announcer
anxiously
backbone
bloomfield
boon
bracket
breyer
browning
calculation
charisma
chimp
daphne
dissatisfaction
eluded
entice
fritzl
gurney
hamad
humid
inexpensive
joao
judo
linger
magnets
militarily
moderation
npower
pancras
sans
shielded
spooky
supersonic
swims
touting
wiseman
##ams
##cala
##cho
##comb
##dir
##gard
##onds
##pering
153
1911
255
argos
collaborate
deir
elon
exert
faisal
friendlies
furnishings
indulging
itchy
keefe
knightley
majorca
milos
protruding
reproduce
simmonds
skye
troublesome
£140
##lves
##rden
##rical
##tained
2025
blight
buildup
cavaliers
cuff
cypriot
dagestan
dividends
ea
enactment
eurosceptic
evading
feats
forbid
hash
hepburn
kayleigh
pharmacist
schmeichel
shackled
sordid
##19
##burgh
##lme
##ppy
##usal
anthrax
appropriations
bader
baffling
bangladeshi
bartlett
bashara
bison
brody
cupcakes
demographics
feminism
gracie
imbalance
intently
interception
joyful
jumbo
methadone
peering
philosophical
ratified
scum
societal
soy
stroller
tran
vlaar
##akable
##hell
##maid
##rna
##vant
##vens
biopic
buffer
carjacking
carts
cheaply
covent
derided
geese
inked
koala
lessen
martina
paranormal
plastered
projection
purporting
sloppy
umunna
verse
##cci
##metric
##minster
##oto
##tinent
algarve
alliances
anomaly
benn
bind
blended
bro
bulgarians
emphatically
envelopes
evaded
fittings
horsepower
ibf
jordi
logos
marlborough
monstrous
mozambique
newquay
parishioners
playwright
risque
romantically
sturdy
whistleblowers
£15million
##5million
##chu
##fields
##fw
##lova
##oui
##pack
164
chimps
chism
clueless
dier
equates
estadio
footpath
futile
lapses
midwifery
mop
patrolled
pellets
retrospective
sabella
scripted
swords
thorn
unprofessional
xilai
##ater
##home
##izen
##lts
##racy
##tia
##vah
148
aberdeenshire
bandages
boutiques
bunting
clampdown
collaborating
correlation
demba
doctorate
embroidered
fitch
fours
giggling
hashtags
hinder
hiroshima
impatient
lufthansa
mvp
rodeo
screwed
spins
sunbathing
tennant
tnt
tristan
ulloa
vacancy
wandsworth
woodwork
##cate
##child
##ddle
##forth
##hack
##metry
##rries
##tist
174
1926
albanian
breakout
briefs
burgundy
casa
cher
cranes
dominates
kebab
killgore
locating
nicklaus
omission
oreal
pythons
sacra
suez
tomkins
tuilagi
zouma
##cated
##iling
##nta
##oel
##oom
biopsy
cancelling
carbs
cartilage
garrison
godfrey
helplessly
humberside
induce
inferior
invaders
inventors
macho
manziel
marginalized
martyn
moored
nutritious
passersby
penal
pics
raspberry
reconcile
regaining
repeats
schizophrenic
skyfall
smothered
stints
stoned
tanned
unloaded
wheatley
##loo
##pies
##sby
abel
alton
apologetic
astra
boomers
cantona
cemented
coptic
cummins
deepened
defuse
durbin
egregious
elbows
equator
gleaming
hakim
hitchcock
jung
kaye
montage
ntc
otter
outback
plum
shopkeeper
soviets
sterile
unfazed
unreal
vase
wand
##aka
##bay
##imetre
##lane
##nter
##rock
##sberg
##sea
##stick
##thorpe
##uni
1901
1919
3ft
80th
albino
bangs
bigfoot
bode
booths
budge
conditioned
deschamps
edinson
electronically
entrusted
figueroa
handicap
hoylake
nodes
optimal
orgasm
policewoman
questionnaire
reinstate
ri
ronaldinho
scientifically
sms
spices
stillborn
trout
wowed
£10m
##a€
##ight
##imo
##kawa
##ldering
##locked
##pins
##rial
##rut
##tage
##trust
##ucus
##wd
##wide
abductions
adkins
bodybuilding
ca
cantlie
congratulates
crafting
eastleigh
eaters
equine
fars
felicity
folds
legality
lifespan
misfortune
motorways
nickel
nostalgic
pediatrician
ref
relive
rourke
selby
snowman
steamy
stringer
terence
theoretically
thom
troll
underscores
understated
wrexham
##amine
##gins
##isi
##lani
##ogy
##tero
228
375
affray
albans
appease
armenian
astute
boles
caterpillar
coroners
dictates
drains
eaton
exclaimed
ferris
fuse
gandolfini
glam
himalayan
huntley
intensify
keaton
mannequin
nacho
nannies
ouch
outward
racers
russo
salts
saudis
signaling
sirte
tallahassee
towing
traitor
vell
yasmin
yulia
##18
##enstein
##inted
##mmel
##oft
##pace
##quent
##weed
##xo
18s
70mph
alfonso
averages
bolted
borneo
contador
cursed
diagnoses
educator
glimpses
hideout
jaguars
lendl
ligaments
negatives
oysters
pampered
redesigned
renovating
roamed
sadistic
si
signalling
tess
tucking
£7million
##arma
##borg
##drop
##eta
##ffey
##good
##hir
##spense
alexandre
birdman
bluntly
butts
clichy
clinicians
cnnmoney
daycare
enviable
fairfield
goalkeeping
grassy
harms
imagining
mccullough
palo
pardoned
payers
prius
prosper
radwanska
realistically
rebuke
rejoin
relaxes
religiously
roache
spokane
theoretical
toppling
understatement
velez
victimized
wheelie
##ades
##cin
##cologist
##dation
##group
##inth
##jani
##orne
##quez
##train
ancestral
ascertain
assignments
astounded
blu
brightness
clubhouse
drafting
excavations
hallways
hollie
ignores
myles
novice
onlooker
paton
patz
peres
romford
stool
suleman
suppression
villains
##ache
##lr
##osh
##rma
##rope
##uncing
##wy
admiring
balaclava
bb
bourbon
brock
broom
driverless
exhibiting
genesis
hardships
inexcusable
iwatch
lansley
magaluf
mg
minogue
nabil
neanderthal
ponzi
propped
remand
repetitive
replicated
sedative
serum
shelton
strongman
sweaty
tendulkar
toting
turbo
undeterred
vetted
voicing
whisper
##dh
##quired
##sham
##tial
##ucker
1908
1924
anc
armchair
bild
childs
cigars
danes
emphasised
erased
erupt
escorts
georges
lulu
lust
mismanagement
nighttime
outstretched
preceding
raked
resumes
retake
sevens
sid
suggestive
tasteless
timbuktu
unparalleled
velodrome
winslet
£900
##ayed
##dler
##oki
##uba
acosta
acrobatic
adversaries
attaching
clemens
cocker
dispel
entertainers
felonies
guillermo
gwent
harsher
larvae
malignant
manifest
mishap
morley
padilla
placebo
shaheen
shinawatra
termed
ultimo
wallpaper
wynn
##bow
##gui
##iu
##nessy
##tart
azpilicueta
blooms
braves
canaveral
cinematic
compliments
crabs
cruelly
docking
edmonton
fondness
jerreat
marchers
mee
multitude
nightlife
padded
pancake
prudent
purposely
stampede
strangle
surveying
trinidad
unflattering
##bry
##hips
##mah
##orous
##owl
##turned
##uble
alibi
annoyance
arenas
aura
brookings
burr
copacabana
deloitte
excitedly
forde
hurtling
infighting
internship
jin
kappa
limped
lukasz
migraines
overgrown
pfizer
preyed
reina
stepdaughter
telford
tremors
##68
##cial
##hrer
##marks
##omy
##rbin
##ssey
bathed
blessings
bolivian
cartier
contrasts
deficiencies
drawers
erratically
girly
hermes
hickox
invalid
josef
kew
mislead
obi
ponds
pouch
retaliate
santander
scantily
sightseeing
strayed
taarabt
tusks
zennie
##cut
##dress
##rius
accelerator
arising
aspirin
bamford
concierge
darby
deluxe
dresden
excerpt
guam
hypothesis
lamont
lebedev
lovell
massacres
ngo
niagara
niqab
oliveira
pineapple
pitbull
pounded
puma
rubenstein
scandinavia
sheeran
sioux
warring
yong
##chat
##dicating
##ennial
##kat
##lates
##sbury
##tad
##trees
##vlin
acutely
andros
beacons
canisters
celebs
christophe
communion
coyle
cravings
endorsing
guatemalan
hatchet
heller
hoffa
imaginable
impacting
journalistic
lawns
municipality
nawaz
nebula
pathways
prides
salvaged
specialising
spiralled
torpedo
vanishing
watertown
witches
wolfgang
##17
##ario
##llas
antiquities
bundles
burials
circa
clarification
combed
comedic
crematorium
critique
curley
debuts
directs
fillers
gazing
glaring
grape
hanover
kershaw
levee
lewes
nih
pancreas
powering
psy
rousseff
saline
schiller
sportsmen
workings
yearbook
£180
##aru
##hers
##khan
##stra
1927
algorithms
armband
collide
decider
defective
eternity
fibres
funniest
geo
javid
manic
mauritius
mcmanus
mileage
mistrust
ore
repressive
satan
screws
stitch
sucks
telly
testicles
thinning
uyghurs
widened
zenit
##trate
##wei
430
447
abolish
aldrin
barclay
berth
bungled
chu
compression
crowns
della
erect
exposes
gamma
gladys
greer
hallmarks
janay
kathmandu
kilogram
noor
penalised
priory
progressively
randolph
recoup
serge
tahoe
tao
trident
uncontrollably
vigilantes
waller
weeds
£31
##aud
##ffman
##iana
##proof
##pson
##ttes
##uity
##voury
1921
absorbing
bryce
capitalize
cardio
cobain
cornerstone
cornwell
deceptive
desolate
disarray
dresser
elated
excessively
foothills
frontrunner
gilmore
graziano
huston
irritating
kadyrbayev
londoner
maclean
maude
merlin
nora
notched
ordinance
phased
pixel
reprisals
resonate
santana
tartan
upfront
upholding
wba
##47
##chet
##ives
##mill
##nected
##ntly
##shing
##smen
##uga
08457
1900s
accumulation
brunei
bulging
charcoal
checkout
cheerleading
dams
defenceless
diminishing
duran
greenfield
hargreaves
hindley
hurst
implying
lacrosse
mentors
mulcaire
nieces
ocd
psychosis
redesign
refereeing
spooked
stereo
tavern
tito
trickle
vocabulary
£60million
##ashi
##gation
##kken
##rck
100million
172
290
annexed
applicable
backbench
backseat
bitch
brigham
caine
contractions
coped
cruciate
davison
declan
discourse
euthanized
faso
fridays
groping
hamlets
jockeys
kardashians
lambs
lizards
lott
mojave
parkway
precipitation
precursor
profiled
revelers
riddle
shortlisted
stead
symphony
toner
£34
##lov
##tails
ames
analytics
bestseller
carefree
choi
consul
cryptic
cycled
deforestation
differs
ecology
floored
insp
keown
loughborough
mullet
neurosurgeon
photojournalist
powys
robles
shadowy
shove
sideline
souvenirs
suede
ur
urinary
werder
wilmington
##bred
##cco
##cie
##royd
##verted
bitterness
cary
contemplated
crohn
deceit
dorsey
earhart
goto
hammam
immobile
incompatible
kirstie
livelihoods
mandates
newbury
ordinated
rennard
rooting
showtime
stings
studs
tins
transfusion
unspeakable
yi
£200million
##bek
##bt
##dles
##jit
##mun
##nheim
##opoulos
##xic
##zzled
##°f
7lb
barnard
baseline
blowout
boating
braking
canned
compatriots
complicit
contradictory
decaying
decried
executioner
floodwater
flooring
fouls
goodwood
gould
hopper
hypothetical
ivorian
kidnapper
lafayette
leftover
legitimately
lifeboats
mimics
nervously
neutrality
patented
resides
rounder
rousing
shaqiri
terra
thunderstorm
umbilical
unleashing
wozniak
£650
##aware
##dc
##gues
##rably
##sic
##ued
baba
barley
beatty
crist
derailment
flake
foothold
forgiving
foy
jailhouse
kolarov
lashkar
lennox
mont
najib
purge
raja
refuted
rochelle
undue
upsets
warehouses
##chin
##dest
##grate
##not
##sell
167
1923
460
aron
boisterous
bower
bulky
censored
clumsy
denouncing
dvla
fluke
graced
invent
jun
kinda
midterms
moldova
nan
pageants
posthumously
rosicky
rupture
shipyard
shopped
shutter
subdue
suspiciously
taxed
toothpaste
whitewash
wingspan
##bal
##cede
##dly
##jin
##lks
##tani
##tional
##uddin
antonia
asbestos
batsmen
bays
buff
circuits
cookbook
courting
darkened
enhancement
espanol
evict
fazio
fey
flammable
fostering
gust
idiots
jillian
lund
misinformation
obsolete
paracetamol
patchy
philosopher
quota
sanderson
seatbelt
specials
teaming
unorthodox
£110
##ouse
##star
advisors
aptly
barristers
begum
canceling
capitalise
cessna
congested
cubicle
deceived
dentists
disrepair
distributor
dwell
euan
exporting
foetus
hogg
juicy
knitting
nutrient
ocampo
omitted
relocation
stimulating
surgically
varane
##elda
##hee
##judged
##lace
##lance
##logue
##mania
##mington
##oned
##rix
##suit
##thest
anaheim
andrei
aspiration
burkina
calendars
cleanse
combatants
corpus
devotees
doughnuts
extort
gilani
gomes
grocer
grounding
herefordshire
jenni
juniors
mozart
mukpo
penetrated
pianist
poached
preparedness
rajoy
siding
siren
squared
vineyards
whitman
##bery
##ctomy
##dating
##fen
##fox
##hem
##iced
##imer
##lley
##ourcing
##plified
##rdy
##utch
##vour
##wab
avenge
burgled
choreographed
clowns
contraband
degrade
earner
eighty
foliage
frock
handedly
hyatt
kolo
kyrgyzstan
lars
legislatures
malice
niro
outpatient
plank
radios
schooled
sensed
soured
stubbs
sumptuous
telecoms
transplanted
trespass
trustworthy
##eller
##hiff
##igned
##lled
##oran
##ruff
##sian
##utner
##vitz
admirable
alder
alfredo
armenia
authorizing
badminton
creamy
denounce
detects
drier
electromagnetic
fetish
fright
furness
grit
honourable
infinite
intervals
irons
larceny
leaped
lockerbie
lofty
maxine
nappy
s4
satanic
scant
searing
smack
snatching
spewing
stallone
surges
swaths
tarp
toobin
treaties
tumors
##aga
##ddie
##lish
##ori
##pathy
##pia
##rini
##uter
##worm
absentee
attribute
banda
begs
canister
dar
depictions
disdain
disrepute
enner
extraction
eyeliner
flex
herb
honed
hoop
hr
ingrid
lacerations
leinster
markedly
mortal
papiss
pedophile
relishing
revel
roper
shivering
texan
togo
unchecked
vapour
variant
waive
waterway
wrought
##activity
##htar
##iman
##isms
##lco
##ously
##rgi
##til
##vsky
##wolf
abdi
abi
admirer
ballerina
cha
coherent
commodities
compressed
connery
contradicts
coordinates
craving
downgrade
droves
emirate
erie
gustavo
hornets
imaginative
inhaling
innocuous
ite
kelli
kiwi
liposuction
luxuries
merritt
multicultural
nuggets
override
revolving
rucksack
shuttered
starve
succeeds
tango
transfusions
##about
##cki
##cts
##mbling
##wain
16gb
325
aleksandar
ameobi
brigadier
chewed
constructing
cremation
cromwell
dengue
denton
diligence
hines
hordes
initiation
instituted
jamieson
loretta
manageable
mounds
noonan
nurseries
penultimate
pleads
predictably
rattling
roddick
rotterdam
rowley
seychelles
simplest
speculating
sprang
stade
suleiman
torrid
tread
verde
witchcraft
##athan
##hay
##nds
##rek
183
40am
auditions
awkwardly
bends
brainwashed
clogged
crumble
curran
depended
dissolve
dwarfs
gable
hijack
kilo
lambeth
oops
oranges
reared
recapture
respectfully
sag
samurai
scour
sheppard
smyth
splinter
stockings
unilaterally
vigilance
witherspoon
##cos
##ddin
##iv
##oaks
##oque
333
40mph
awry
dina
displacement
enrich
eponymous
folklore
freaked
gram
hammering
impasse
instructing
jigsaw
kenyatta
leathers
legislator
leopards
lindo
milligrams
nemesis
palatial
pimp
reelection
resounding
saltwater
skimpy
smartly
smoky
tebow
trampled
unc
usgs
vinyl
##arm
##ience
##lack
##nley
##urable
75th
adept
afridi
aylesbury
bbq
bronson
convent
crates
daft
deployments
droppings
eater
fluorescent
grilling
influencing
legalizing
magnussen
pixels
porous
psycho
pyne
rants
shakira
slab
sneiderman
straits
sugars
throngs
unaided
usada
wafer
whittaker
woolworths
##claims
##ibble
##ign
##owing
##wind
##won
1500
3000
50pm
abuja
agbonlahor
alamo
alnwick
amphibious
analogy
asserting
bailiffs
bani
banished
bulge
cnnopinion
coercion
counters
droughts
dwarfed
eindhoven
emilio
esque
flatly
generational
ghani
grange
hartman
hereditary
inhuman
ko
landon
macedonia
manicured
mastered
merge
modes
moth
myuran
phony
plethora
scraps
sleeved
teamwork
undone
virtues
watery
widen
##bbed
##bler
##dr
##hore
##ija
##imeter
##orted
##tep
##tters
##yad
addison
battlefields
blanco
casings
cecilia
cheats
daniela
dispatchers
fabrice
filth
fullest
gasping
gravy
heineken
hypertension
kang
lantern
migrate
rambold
somalis
suspensions
tyrant
vunipola
wentworth
##16
##acies
##philia
##rew
##rove
##tight
##wang
allure
biking
boer
buffon
callahan
clapping
compromises
conservatism
correctness
degenerative
dodged
escalator
experimented
fresno
furnished
gruber
haron
headscarf
infect
lbs
mears
mediation
ordination
ordinator
procurement
restless
rosso
sensations
slut
sowell
thru
tracksuit
tsar
turkeys
underscored
vines
viola
withdrawals
wrangling
zeppelin
##dog
##ishly
##koff
##landa
##litz
##qa
##tability
##vt
195
amazement
ari
ballance
baugh
breathed
canning
centimeters
che
dion
gangnam
goodbyes
grad
grosvenor
hara
hippo
inaccessible
infamously
irresistible
jourdan
kourtney
librarian
marbella
masse
mixes
motivations
mrsa
mullah
mulligan
nadir
nurture
partridge
peripheral
pests
plaudits
regina
rfu
seinfeld
shinzo
sins
taxing
tendon
truro
unnatural
£20m
£36
£49
##alo
##houn
##ishes
##rain
9m
acevedo
ache
bevan
bosworth
bumpy
bunk
burley
cellphones
clicks
conscientious
councilman
dakar
disciplines
downpour
emerson
emmys
emphasise
fad
freaking
giveaway
glider
gypsies
hales
hazmat
hues
klausner
latina
morals
paulinho
permitting
rages
reassignment
rundown
scalise
tusk
##birth
##cit
##hri
##ilised
##occo
##uted
1913
6in
arches
ces
comprise
conform
conquering
crewe
frederik
fuzzy
halep
isleworth
ives
necklaces
persistence
personalized
raven
ravine
relapse
ridiculously
shawcross
tazhayakov
unwavering
vigo
##dp
##hari
##ih
##lity
##nable
##sov
##tts
156
161
assassinations
baha
boulders
broaden
bugatti
burlesque
confederations
conjoined
conservatory
conveyed
deem
dice
dominguez
exhaustive
genitalia
insurer
iodine
julius
kyoto
m1
m4
mandelson
mcleod
memorandum
ned
notifying
occupant
oxide
ozone
realization
redmayne
scraped
sprays
tagging
timer
uncles
warms
##anga
##drick
##drome
##eding
##ession
##lder
##lford
##lion
##oise
##times
##upp
5in
cabaye
celta
clientele
crusader
cuddles
disliked
emmett
fainted
farrah
haemorrhage
iggy
invariably
jetliner
marylebone
milder
moderates
nasdaq
newham
ramon
renewing
riga
sandler
sina
solskjaer
susanna
thinly
undiagnosed
verses
vinegar
viscount
yuri
##cd
##eto
##icles
##isson
##ivated
##ldon
##rising
##scious
177
adriano
augustine
bashed
blooming
chandelier
chiles
cucumber
dagenham
electrodes
entrepreneurship
eulogy
fashions
grassley
headlined
healey
hinting
jacobson
lehman
levied
marjorie
pharmaceuticals
pings
possesses
restive
reviewer
skewed
thickness
ticks
uddin
wading
wealthier
##aldi
##cke
##cracy
##lful
##torted
##wig
discrepancy
expats
gaffes
gastrointestinal
inventive
jobseekers
ketamine
manuscripts
milford
mimicking
polka
rana
spurned
stow
tempt
theatres
trialled
viability
##ahan
##czak
##lburn
##nea
##pet
##sler
4in
acrimonious
afro
altitudes
bereavement
calmer
canteen
champs
confrontational
deleting
differentiate
exasperated
flakes
grigor
harf
headmistress
lazarus
levant
lick
lithuanian
livermore
loot
mans
modules
nunn
philanthropy
pl
prolong
rabies
reeve
sarcastic
snails
sundance
superheroes
swayed
thaw
tiara
velocity
##bey
##ombe
##rage
##sser
##torm
206
adolescence
audible
chaney
chlorine
clutched
comedies
corvette
cracker
dime
ding
fireplaces
frigate
garfield
gayet
guitars
hatfield
heavyweights
identifiable
improbable
incite
irrespective
mairead
mic
nano
negativity
neuman
privatisation
publicised
raider
rebellious
recreating
sled
sylvain
tyranny
unresolved
vividly
##buck
##etts
##inn
##nous
##oking
##tif
34th
accrington
aroused
backpacks
beak
bile
blazes
bluff
brinsley
britt
chute
concorde
copycat
delusional
dunk
effortlessly
emitting
hospitalization
invictus
knifed
lauder
levitt
lochte
mateo
morecambe
nicer
nurturing
perennial
pfc
ponytail
presentations
pryor
resurfaced
ringo
rompuy
roulette
superbly
truthful
vented
yourselves
##adia
##amy
##dam
##erty
##iris
##rot
##rrow
##social
##tner
##wash
alvarado
bandaged
blackened
blackwell
burj
cashed
cleary
contradicted
crowdfunding
dartford
deepen
destabilize
exemptions
flicked
fuentes
graceful
hal
haringey
healy
itching
jacuzzi
kitted
mai
mandeville
micky
nests
oakley
parameters
purposefully
reputed
ripley
ripper
sculpted
shroud
supremacy
swanson
temperament
vasquez
vic
##dio
##dl
##erous
##name
##onation
##rico
##ulla
##wicz
157
158
accredited
alienated
bavarian
bethlehem
bletchley
bookies
boos
chaplin
childless
crete
enlist
feathered
felton
fixer
greener
greyhound
hearty
hypocritical
infestation
informants
jewellers
mccaw
negro
nesting
panned
partied
pastime
proportionate
reckon
revoke
scotia
seawater
showering
slabs
smashes
strung
stumps
tasers
totaled
unavoidable
£38
##bread
##chman
##fing
##iam
##iso
##iva
##laus
##matic
##rsch
##uda
205
amr
barron
binoculars
caters
cumberland
goldfish
hariri
headstone
meriam
mta
nominating
opportunistic
paz
phnom
punctuated
rhonda
spacey
sponsoring
wrongfully
wwf
##drum
##lick
##logged
##otic
##sq
##tration
##ught
##urist
airbnb
appreciative
baylor
borno
catcher
caved
clinching
comfy
commencement
consolidate
disk
divulge
euphoria
expel
forties
gatsby
hedges
huma
idols
illusions
interns
jurisdictions
lanarkshire
menzies
mitochondrial
pickens
profusely
reignited
sociology
sparkly
terrorized
undisputed
uyghur
wahlberg
wilkerson
##dro
##eze
##growth
##ilization
##izers
##nam
##slow
8ft
brentwood
brianna
castles
cavalier
complicity
customized
downstream
dressage
emilia
fayed
fer
glide
locomotive
lorna
manpower
masterpieces
mckinley
mercia
molten
overpass
pontiac
qualifies
rectify
rnc
sabine
seaman
seminar
serenity
sermons
shellie
shrewd
sportswear
stimulant
summons
tal
tinted
unprepared
waterhouse
whitehouse
##cg
##fix
##inder
##map
##path
##rde
##vita
##vu
aamer
bedrock
belmont
blatantly
chronicled
clapham
definitively
enigma
erickson
fonda
forbids
gushed
jd
locke
macbook
metabolic
peeling
poundland
prioritise
queries
reaffirmed
recluse
redman
sos
stoning
traore
weakest
zion
##blin
##building
##fon
##henko
##hos
##pert
##rch
##yte
50mph
applauds
basra
corinthians
evidenced
goodluck
hog
invincible
jk
kellie
komisarjevsky
mathews
microphones
penitentiary
prairie
raking
squatters
suki
swells
thani
unrepentant
watered
##cis
##itarian
##lston
##mping
##niss
##paid
##pkins
##version
advertiser
alvarenga
avila
batty
bolasie
buster
centrepiece
confesses
davy
dawkins
decomposing
deflated
deliberation
deserts
disable
greenberg
grenoble
hazell
ike
infiltrate
kaur
knowledgeable
mobilized
moist
profanity
retracted
rung
sidewalks
sourcing
stockpiles
tease
terminator
unjustified
vulnerabilities
woodhouse
zinedine
##ael
##beth
##eiro
##fm
##ior
##lik
##lix
##nded
##phy
##ptic
##rough
##ryl
##seat
##stock
##tomy
##uality
##ues
##yla
##zza
abandonment
agonizing
bel
blunkett
boredom
cultivated
disappearances
distributors
fenced
figurines
fingertips
handout
insignificant
iplayer
kenyans
knuckle
mcgill
momentarily
neural
nipple
ops
petersen
promoters
resuming
salvatore
splendid
steeped
strickland
supervise
twerking
underweight
uninhabited
villiers
vito
woeful
##asurable
##augh
##cas
##db
##dging
##human
##lab
##lations
##mentation
##nged
##rak
##rty
##tak
##tfield
aggressor
ammonia
blinds
breezy
consciously
declarations
defection
dirk
displeasure
ducked
fatigues
fest
firefighting
groundwater
ida
intuitive
jeter
matrix
meddling
micah
nuevo
orchid
partnering
pellet
plutonium
processors
rained
rancho
skateboard
strikingly
unfaithful
uplifting
yelp
£59
##bottom
##bro
##edo
##kell
##lable
##nut
##obe
##oza
##ush
##uso
augmented
avocado
az
bandit
barak
breeders
brisk
calif
centrist
circumstantial
cotswolds
deafening
dungeon
felled
finely
grafts
kofi
maroon
matriarch
mobilize
orangutans
plowed
pranks
pressuring
renegotiate
shekau
sleeper
spontaneously
strangulation
supremo
svelte
tiring
todashev
totti
u21
##atta
##camp
##cats
##earns
##euve
##ilon
##jia
##lised
##nah
##nsing
##pg
##qui
##ttle
##uitous
67p
clerical
depressants
gerardo
ghostly
holistic
immersive
irate
jabs
khyber
mcgowan
necessities
pastel
rationing
rescuer
roswell
salzburg
sequestration
squat
superiority
threads
vardy
versailles
viewpoint
##erg
##film
##hler
##isco
##lland
##mony
##rik
##vier
50am
8billion
burner
cashman
cassandra
cybersecurity
dai
degradation
dusan
effortless
emboldened
epl
forecasting
getafe
greenville
legions
lsd
nirvana
nolen
notts
occupies
probed
reiterate
reservoirs
residual
resorting
sandstone
scrape
shahid
shaven
smitten
startups
steubenville
underpants
unscrupulous
yeates
£30m
##aring
##chs
##eds
##hak
##holm
##lger
##mies
##sphere
##trillion
146
178
allegri
cartridges
cid
counsellor
cradle
dormitory
dwellers
enticing
espresso
ferreira
gilles
gillingham
hormonal
instigated
keenly
lanterns
lcc
maddox
marxist
mcenroe
minsk
perpetual
pires
powdered
racehorse
rake
redding
scorsese
selections
siegel
spaceshiptwo
spire
suffocating
taxman
tj
trampoline
trusty
undersea
wardrobes
yeo
##cao
##code
##hc
##heel
##itive
##lization
##oal
##rator
##yd
##yman
ab
adlington
airway
atheists
capping
carlin
casper
cutler
decisively
discontinued
distasteful
entangled
escorting
ethel
flaming
gainesville
invoices
kali
kei
litany
madam
mahoney
narrowing
neared
parc
patsy
pomp
pretext
raza
resumption
rockies
sobering
soggy
splattered
textbook
unsealed
wracked
yohan
##90
##eman
##eries
##friend
##logic
##lous
##porated
##sating
560
640
allocation
anal
balfour
blending
commenced
commuting
cones
dented
dishwasher
doggy
envisioned
esquire
fabled
foreigner
glands
himalayas
hound
incorporates
laidlaw
meteorites
mmr
monochrome
mythology
nursed
optic
parr
pasty
pemberton
securely
shotguns
simons
slimmed
sociable
springer
tapper
unfolds
wayward
##ditch
##heet
##iving
##liffe
##nica
##trained
235
agility
amicable
anthropology
camacho
charmed
commemorations
dampen
eczema
equip
facilitating
fungal
hush
irreplaceable
mannered
mcfadden
monique
neurology
orchestrating
osaka
penh
piloting
rami
rehabilitate
reputations
reviving
shimmering
simultaneous
sofas
spacewalk
stamping
sumatra
suzuki
tuxedo
upgrading
wink
£99
##cter
##heng
##linson
##lough
##oso
##ract
##rred
##ully
##vc
aubrey
brat
brothels
busquets
careered
centerpiece
conveyor
coronado
fountains
gervais
gisele
hurd
intestinal
mcvey
miroslav
nordic
prowse
quotas
restraints
seamlessly
sexton
strenuously
thc
tilly
vacancies
valor
voyeurism
##aal
##av
##eus
##frey
##iant
##icki
##xon
agnes
booby
caged
christened
combs
comey
conner
cte
cushions
desserts
gameplay
hajj
hideous
hornet
inquisitive
lifesaving
lobbyist
longed
memos
molecule
nabbed
observes
payback
peppered
perverse
rupees
stills
textbooks
tongues
udall
undercut
unduly
vacationing
vertically
walkout
waterlow
##char
##done
##hina
##inho
##jic
##laring
##latt
##tched
##vil
##was
40p
amputate
buns
constituted
contraption
crave
cristian
cunning
cutbacks
dreamt
dutton
erick
eyeing
footballs
ftc
glendale
heater
hipster
impetus
jocelyn
kohli
littlefield
matchday
mcconaughey
metadata
missionaries
monfils
mummified
myleene
philanthropic
phyllis
picket
pisa
plugs
poo
retires
speedboat
storeys
syringes
syriza
tahmooressi
teaspoons
telephoned
timid
trenton
undiscovered
##dall
##munication
##set
176
blush
bronte
cagliari
cliche
conspicuous
corriere
countryman
dismissive
durban
errands
excrement
fay
gabon
houthi
interpretations
inventing
jeopardize
kerobokan
liter
marlene
mei
mudslides
muir
newfound
nomadic
nunez
obligated
originate
pattinson
publishes
rutland
sanity
shockwaves
spade
tania
unassuming
zainab
£170
##chel
##determined
##hering
##hid
##itable
##ivision
##iy
##lige
##llard
##rons
##uai
##vr
##witch
186
193
470
aberystwyth
align
anarchy
blends
bluefin
bouquets
bowing
bumping
cascade
censor
cornelius
cupboards
damned
demeaning
democracies
encased
erroneous
examiners
fiddle
flagging
grandeur
herds
hewlett
jadeja
leaker
lewisham
onshore
plaques
promenade
recurrence
rewritten
spectacles
speculative
stout
tasered
throwback
tor
vader
whitmore
##ales
##katerina
##lone
##mination
##rent
[...]
